const unsigned char trained_tflite[] = {
  0x1c, 0x00, 0x00, 0x00, 0x54, 0x46, 0x4c, 0x33, 0x00, 0x00, 0x12, 0x00,
  0x1c, 0x00, 0x04, 0x00, 0x08, 0x00, 0x0c, 0x00, 0x10, 0x00, 0x14, 0x00,
  0x00, 0x00, 0x18, 0x00, 0x12, 0x00, 0x00, 0x00, 0x03, 0x00, 0x00, 0x00,
  0x18, 0x2a, 0x00, 0x00, 0x04, 0x12, 0x00, 0x00, 0xec, 0x11, 0x00, 0x00,
  0x3c, 0x00, 0x00, 0x00, 0x04, 0x00, 0x00, 0x00, 0x01, 0x00, 0x00, 0x00,
  0x0c, 0x00, 0x00, 0x00, 0x08, 0x00, 0x0c, 0x00, 0x04, 0x00, 0x08, 0x00,
  0x08, 0x00, 0x00, 0x00, 0x08, 0x00, 0x00, 0x00, 0x20, 0x00, 0x00, 0x00,
  0x13, 0x00, 0x00, 0x00, 0x6d, 0x69, 0x6e, 0x5f, 0x72, 0x75, 0x6e, 0x74,
  0x69, 0x6d, 0x65, 0x5f, 0x76, 0x65, 0x72, 0x73, 0x69, 0x6f, 0x6e, 0x00,
  0x21, 0x00, 0x00, 0x00, 0x9c, 0x11, 0x00, 0x00, 0x88, 0x11, 0x00, 0x00,
  0x4c, 0x11, 0x00, 0x00, 0x28, 0x11, 0x00, 0x00, 0x04, 0x11, 0x00, 0x00,
  0xe0, 0x10, 0x00, 0x00, 0xac, 0x10, 0x00, 0x00, 0x18, 0x10, 0x00, 0x00,
  0x64, 0x08, 0x00, 0x00, 0x20, 0x08, 0x00, 0x00, 0x2c, 0x02, 0x00, 0x00,
  0x08, 0x02, 0x00, 0x00, 0xe4, 0x01, 0x00, 0x00, 0xc0, 0x01, 0x00, 0x00,
  0x9c, 0x01, 0x00, 0x00, 0x78, 0x01, 0x00, 0x00, 0x54, 0x01, 0x00, 0x00,
  0x48, 0x01, 0x00, 0x00, 0x34, 0x01, 0x00, 0x00, 0x20, 0x01, 0x00, 0x00,
  0x0c, 0x01, 0x00, 0x00, 0xf8, 0x00, 0x00, 0x00, 0xe4, 0x00, 0x00, 0x00,
  0xd0, 0x00, 0x00, 0x00, 0xbc, 0x00, 0x00, 0x00, 0xa8, 0x00, 0x00, 0x00,
  0x94, 0x00, 0x00, 0x00, 0x80, 0x00, 0x00, 0x00, 0x6c, 0x00, 0x00, 0x00,
  0x58, 0x00, 0x00, 0x00, 0x44, 0x00, 0x00, 0x00, 0x30, 0x00, 0x00, 0x00,
  0x04, 0x00, 0x00, 0x00, 0x0a, 0xee, 0xff, 0xff, 0x04, 0x00, 0x00, 0x00,
  0x10, 0x00, 0x00, 0x00, 0x31, 0x2e, 0x35, 0x2e, 0x30, 0x00, 0x00, 0x00,
  0x00, 0x00, 0x00, 0x00, 0x00, 0x00, 0x00, 0x00, 0x00, 0x00, 0x00, 0x00,
  0x00, 0x00, 0x00, 0x00, 0x00, 0x00, 0x00, 0x00, 0xb4, 0xd8, 0xff, 0xff,
  0x00, 0x00, 0x00, 0x00, 0x00, 0x00, 0x00, 0x00, 0x00, 0x00, 0x00, 0x00,
  0xc4, 0xd8, 0xff, 0xff, 0x00, 0x00, 0x00, 0x00, 0x00, 0x00, 0x00, 0x00,
  0x00, 0x00, 0x00, 0x00, 0xd4, 0xd8, 0xff, 0xff, 0x00, 0x00, 0x00, 0x00,
  0x00, 0x00, 0x00, 0x00, 0x00, 0x00, 0x00, 0x00, 0xe4, 0xd8, 0xff, 0xff,
  0x00, 0x00, 0x00, 0x00, 0x00, 0x00, 0x00, 0x00, 0x00, 0x00, 0x00, 0x00,
  0xf4, 0xd8, 0xff, 0xff, 0x00, 0x00, 0x00, 0x00, 0x00, 0x00, 0x00, 0x00,
  0x00, 0x00, 0x00, 0x00, 0x04, 0xd9, 0xff, 0xff, 0x00, 0x00, 0x00, 0x00,
  0x00, 0x00, 0x00, 0x00, 0x00, 0x00, 0x00, 0x00, 0x14, 0xd9, 0xff, 0xff,
  0x00, 0x00, 0x00, 0x00, 0x00, 0x00, 0x00, 0x00, 0x00, 0x00, 0x00, 0x00,
  0x24, 0xd9, 0xff, 0xff, 0x00, 0x00, 0x00, 0x00, 0x00, 0x00, 0x00, 0x00,
  0x00, 0x00, 0x00, 0x00, 0x34, 0xd9, 0xff, 0xff, 0x00, 0x00, 0x00, 0x00,
  0x00, 0x00, 0x00, 0x00, 0x00, 0x00, 0x00, 0x00, 0x44, 0xd9, 0xff, 0xff,
  0x00, 0x00, 0x00, 0x00, 0x00, 0x00, 0x00, 0x00, 0x00, 0x00, 0x00, 0x00,
  0x54, 0xd9, 0xff, 0xff, 0x00, 0x00, 0x00, 0x00, 0x00, 0x00, 0x00, 0x00,
  0x00, 0x00, 0x00, 0x00, 0x64, 0xd9, 0xff, 0xff, 0x00, 0x00, 0x00, 0x00,
  0x00, 0x00, 0x00, 0x00, 0x00, 0x00, 0x00, 0x00, 0x74, 0xd9, 0xff, 0xff,
  0x00, 0x00, 0x00, 0x00, 0x00, 0x00, 0x00, 0x00, 0x00, 0x00, 0x00, 0x00,
  0x84, 0xd9, 0xff, 0xff, 0x00, 0x00, 0x00, 0x00, 0x00, 0x00, 0x00, 0x00,
  0x00, 0x00, 0x00, 0x00, 0x94, 0xd9, 0xff, 0xff, 0x00, 0x00, 0x00, 0x00,
  0x1a, 0xef, 0xff, 0xff, 0x04, 0x00, 0x00, 0x00, 0x10, 0x00, 0x00, 0x00,
  0x01, 0x00, 0x00, 0x00, 0x05, 0x00, 0x00, 0x00, 0x01, 0x00, 0x00, 0x00,
  0x0a, 0x00, 0x00, 0x00, 0x00, 0x00, 0x00, 0x00, 0x3a, 0xef, 0xff, 0xff,
  0x04, 0x00, 0x00, 0x00, 0x0c, 0x00, 0x00, 0x00, 0x01, 0x00, 0x00, 0x00,
  0x05, 0x00, 0x00, 0x00, 0x0a, 0x00, 0x00, 0x00, 0x00, 0x00, 0x00, 0x00,
  0x00, 0x00, 0x00, 0x00, 0x5a, 0xef, 0xff, 0xff, 0x04, 0x00, 0x00, 0x00,
  0x10, 0x00, 0x00, 0x00, 0x01, 0x00, 0x00, 0x00, 0x01, 0x00, 0x00, 0x00,
  0x09, 0x00, 0x00, 0x00, 0x1e, 0x00, 0x00, 0x00, 0x00, 0x00, 0x00, 0x00,
  0x7a, 0xef, 0xff, 0xff, 0x04, 0x00, 0x00, 0x00, 0x10, 0x00, 0x00, 0x00,
  0x01, 0x00, 0x00, 0x00, 0x2d, 0x00, 0x00, 0x00, 0x01, 0x00, 0x00, 0x00,
  0x1e, 0x00, 0x00, 0x00, 0x00, 0x00, 0x00, 0x00, 0x9a, 0xef, 0xff, 0xff,
  0x04, 0x00, 0x00, 0x00, 0x0c, 0x00, 0x00, 0x00, 0x01, 0x00, 0x00, 0x00,
  0x2d, 0x00, 0x00, 0x00, 0x1e, 0x00, 0x00, 0x00, 0x00, 0x00, 0x00, 0x00,
  0x00, 0x00, 0x00, 0x00, 0xba, 0xef, 0xff, 0xff, 0x04, 0x00, 0x00, 0x00,
  0x10, 0x00, 0x00, 0x00, 0x01, 0x00, 0x00, 0x00, 0x01, 0x00, 0x00, 0x00,
  0x31, 0x00, 0x00, 0x00, 0x0d, 0x00, 0x00, 0x00, 0x00, 0x00, 0x00, 0x00,
  0xda, 0xef, 0xff, 0xff, 0x04, 0x00, 0x00, 0x00, 0xdc, 0x05, 0x00, 0x00,
  0xbb, 0x0c, 0x20, 0xf2, 0x72, 0xde, 0xcd, 0x16, 0xc2, 0xc7, 0x02, 0xbd,
  0x7f, 0x3d, 0xea, 0x07, 0xbb, 0x1c, 0x02, 0x1b, 0x71, 0xcf, 0xb7, 0xef,
  0xcf, 0xad, 0x70, 0xe8, 0xd0, 0xbf, 0xc1, 0xec, 0x30, 0xb2, 0x63, 0x4c,
  0x49, 0x00, 0x58, 0x3d, 0x02, 0x56, 0xc9, 0x43, 0xe3, 0x2d, 0x2f, 0x23,
  0xd5, 0xc7, 0xdb, 0x02, 0x5d, 0xca, 0xe0, 0xbd, 0x2d, 0x29, 0x52, 0xc8,
  0x36, 0xdd, 0xcb, 0x9e, 0xbe, 0xbd, 0xa8, 0x55, 0xf2, 0x61, 0x49, 0xf2,
  0x5e, 0x90, 0xf4, 0x47, 0x12, 0x24, 0xfe, 0x1a, 0xc3, 0xbf, 0x29, 0x49,
  0x95, 0x5c, 0x22, 0x02, 0x58, 0x2f, 0x38, 0x54, 0x5a, 0xe2, 0xed, 0xf6,
  0xf5, 0xa1, 0xeb, 0xb8, 0xcd, 0xcd, 0xb6, 0x19, 0x0c, 0x45, 0x7a, 0x68,
  0x03, 0xe2, 0xe1, 0x2f, 0x23, 0xa9, 0xae, 0xbe, 0x41, 0xa7, 0x1d, 0x79,
  0x2f, 0x41, 0x3d, 0xe3, 0x20, 0xa5, 0xdb, 0x37, 0x4e, 0x68, 0x39, 0xb4,
  0x48, 0x2d, 0x27, 0x3e, 0x55, 0x33, 0x6b, 0xa3, 0x68, 0x1f, 0xdf, 0x8c,
  0x12, 0x3d, 0x4c, 0x21, 0xba, 0x32, 0xb3, 0x0f, 0xd3, 0x15, 0x1f, 0x05,
  0x4b, 0xcf, 0xd5, 0xb0, 0xfa, 0xac, 0xcb, 0xd5, 0xc2, 0xa1, 0xe4, 0x5d,
  0x2e, 0x9e, 0x21, 0x5a, 0xfb, 0x46, 0xde, 0x73, 0xc6, 0x20, 0x03, 0x3e,
  0xb5, 0x05, 0x44, 0x44, 0x0a, 0x30, 0x20, 0xe0, 0xd6, 0x52, 0x9d, 0x0f,
  0x3c, 0xfe, 0x7f, 0x5e, 0x1e, 0x62, 0x1c, 0x10, 0x64, 0xda, 0x16, 0x67,
  0x4e, 0x68, 0xe3, 0x07, 0x3a, 0xd2, 0x47, 0x12, 0xc4, 0xc4, 0xd2, 0x49,
  0x6f, 0xad, 0xe2, 0x3e, 0xcb, 0x50, 0xbf, 0x04, 0x6f, 0x3f, 0x1b, 0x90,
  0x27, 0x4e, 0x55, 0xd3, 0x61, 0x13, 0xfb, 0x3d, 0x26, 0xae, 0xc6, 0x94,
  0xcf, 0x6b, 0xca, 0x35, 0xd3, 0x4d, 0x35, 0xcd, 0x5b, 0x09, 0x3a, 0xe7,
  0xb2, 0x13, 0x2e, 0xe7, 0x37, 0xc5, 0x9f, 0xdc, 0x47, 0xf7, 0x68, 0x49,
  0xf6, 0x4f, 0xfc, 0xa7, 0xb7, 0x53, 0xa0, 0xa1, 0x20, 0x34, 0x3c, 0x39,
  0x03, 0xb5, 0x5f, 0x2c, 0x48, 0x18, 0x3e, 0x32, 0x09, 0x35, 0xbb, 0x01,
  0x37, 0x0b, 0xe1, 0xa9, 0xa8, 0xe1, 0x3e, 0x57, 0x4e, 0xc6, 0xb7, 0xa9,
  0x8e, 0x46, 0x05, 0xac, 0x49, 0x0c, 0x23, 0xc9, 0x5e, 0x58, 0xd2, 0xdb,
  0x32, 0x81, 0x31, 0xcf, 0xde, 0x6a, 0xb7, 0xd0, 0x6c, 0xbf, 0xfd, 0x2f,
  0x40, 0x20, 0xd5, 0xbe, 0xfb, 0x43, 0x22, 0xab, 0x02, 0xd3, 0xcc, 0x54,
  0x40, 0x43, 0x00, 0xea, 0x3c, 0x2b, 0x00, 0x38, 0x53, 0xaa, 0x0d, 0xae,
  0xfd, 0xdb, 0xd3, 0x00, 0x28, 0xce, 0x4b, 0xfd, 0xdb, 0x97, 0xf9, 0xd6,
  0xb1, 0xbf, 0x10, 0x43, 0x4a, 0x67, 0xfb, 0xa6, 0x46, 0x4e, 0x46, 0xc5,
  0x2c, 0xb3, 0x26, 0x29, 0x5d, 0x1c, 0x3e, 0xe3, 0x58, 0x45, 0xfd, 0x21,
  0x11, 0xe3, 0xb6, 0x14, 0xfa, 0x4f, 0x15, 0x0e, 0xc2, 0xa4, 0x65, 0xbe,
  0x12, 0xbf, 0x61, 0xac, 0xfd, 0x3f, 0x6a, 0xcf, 0x76, 0x32, 0xbb, 0x21,
  0xd6, 0x40, 0x5a, 0xbc, 0x39, 0xc0, 0x3c, 0xb2, 0xf9, 0xf6, 0x24, 0x13,
  0xe7, 0x23, 0x02, 0xdb, 0xf9, 0x01, 0xcc, 0x34, 0x46, 0x24, 0xd5, 0x06,
  0x0a, 0xad, 0x7f, 0xee, 0x1d, 0x68, 0x5b, 0x0f, 0xa1, 0xab, 0x2a, 0x3d,
  0x35, 0xa3, 0xae, 0xa7, 0x2e, 0xce, 0xc6, 0xe6, 0xd3, 0xcd, 0xe1, 0x1f,
  0x54, 0x3f, 0x36, 0xaf, 0x3e, 0x3d, 0x02, 0xda, 0xda, 0x51, 0xf9, 0x0e,
  0x19, 0xc0, 0xc5, 0x49, 0x37, 0x64, 0xf0, 0xb9, 0xbf, 0x62, 0x0f, 0x2c,
  0x1c, 0xff, 0xc1, 0x0e, 0xfd, 0xbb, 0x5a, 0x34, 0x0a, 0xa6, 0xa8, 0xf6,
  0xb6, 0x45, 0x10, 0xa2, 0xa7, 0xf2, 0xe3, 0x3c, 0xbf, 0xd5, 0xba, 0xff,
  0x2f, 0xf8, 0x21, 0xc7, 0xfd, 0xfe, 0x08, 0xd0, 0x0b, 0x23, 0xf2, 0x38,
  0xb2, 0x63, 0xd2, 0x05, 0xa5, 0x49, 0xe1, 0x15, 0x00, 0x5a, 0xfe, 0xb2,
  0x95, 0x02, 0x18, 0x04, 0x06, 0xbe, 0x3c, 0x58, 0x00, 0x1b, 0x87, 0x0c,
  0xcd, 0x2f, 0xee, 0x25, 0x51, 0x9f, 0xd4, 0x5c, 0xde, 0xa6, 0xb8, 0x09,
  0xc1, 0x66, 0x1b, 0x0d, 0x56, 0x12, 0x02, 0x0e, 0xc7, 0x2e, 0x2f, 0xf2,
  0x1d, 0x0a, 0x22, 0xb9, 0x82, 0x40, 0x6f, 0x53, 0xdc, 0x5c, 0xea, 0xa8,
  0xd3, 0xda, 0xd3, 0xba, 0xd0, 0xbc, 0x25, 0x7f, 0x1f, 0x56, 0x4d, 0xaa,
  0xa9, 0x5e, 0xd7, 0x13, 0x5a, 0x4d, 0x15, 0x4c, 0xfb, 0x95, 0x1a, 0x3b,
  0x3b, 0xeb, 0xc0, 0xa9, 0xad, 0x60, 0xea, 0x0c, 0xb8, 0x6b, 0x11, 0x9c,
  0xa3, 0x25, 0x02, 0x2d, 0x13, 0xc9, 0x42, 0x3d, 0x4c, 0x3a, 0xf9, 0x63,
  0x74, 0xe9, 0x20, 0xca, 0x3d, 0x05, 0x14, 0xdc, 0xc7, 0xd7, 0xc7, 0x27,
  0x3b, 0xed, 0x13, 0x58, 0x4f, 0xe7, 0xbf, 0x05, 0xee, 0xae, 0xea, 0xab,
  0xd1, 0x53, 0x3f, 0xec, 0xf0, 0xe9, 0x76, 0xae, 0x04, 0xfc, 0x43, 0xba,
  0xec, 0x4a, 0xae, 0xff, 0xf0, 0xfa, 0x5c, 0x33, 0xc5, 0xfc, 0x5c, 0x23,
  0xfa, 0x81, 0xf5, 0x1e, 0x1b, 0xca, 0x04, 0xf0, 0x0a, 0xca, 0x0f, 0x10,
  0x24, 0x0f, 0x26, 0x1c, 0x1d, 0x07, 0xb7, 0x05, 0xb3, 0x00, 0x20, 0xf2,
  0xca, 0x48, 0xd0, 0xfb, 0xd4, 0x0a, 0xe9, 0xeb, 0x27, 0x18, 0xbc, 0xc7,
  0x44, 0x27, 0x02, 0xa8, 0xc0, 0xf3, 0x1a, 0xc0, 0x34, 0x24, 0x49, 0x04,
  0xab, 0x16, 0xa8, 0x55, 0x41, 0xf7, 0xe4, 0x2e, 0xe8, 0x35, 0xb4, 0x02,
  0x1f, 0xd7, 0x08, 0x17, 0xce, 0xf9, 0x38, 0xc3, 0x9e, 0xe3, 0x91, 0xd7,
  0x58, 0xed, 0xd7, 0x0a, 0x12, 0x98, 0x45, 0x25, 0xba, 0x14, 0xc2, 0xda,
  0x07, 0xf1, 0x39, 0x87, 0x82, 0x51, 0x95, 0x4b, 0xe0, 0x33, 0xc4, 0x08,
  0xa0, 0x0f, 0x1a, 0x31, 0x0f, 0x2a, 0xae, 0x24, 0x96, 0xb5, 0x85, 0xeb,
  0x5f, 0x1e, 0x1b, 0xde, 0xe0, 0x52, 0x3a, 0x3a, 0x30, 0xdc, 0x27, 0x0a,
  0xf0, 0x51, 0xf4, 0x51, 0x2d, 0x3b, 0xe6, 0x29, 0xda, 0x01, 0xd0, 0x52,
  0x6c, 0x51, 0xd9, 0xc7, 0x01, 0x09, 0x55, 0xf5, 0xc5, 0xa1, 0xb0, 0x38,
  0xf3, 0xfd, 0xe5, 0x7f, 0x06, 0xd7, 0xe8, 0x2e, 0x9a, 0x26, 0x09, 0x00,
  0x09, 0xee, 0x22, 0xf5, 0xce, 0xe3, 0x2b, 0xa0, 0xee, 0xf2, 0x34, 0xf8,
  0x9b, 0x40, 0xcc, 0xe4, 0xe6, 0xed, 0x6b, 0x1b, 0xc7, 0x73, 0x64, 0xf7,
  0xdd, 0x83, 0xd3, 0xc8, 0xaf, 0x83, 0xfb, 0x1b, 0xeb, 0xbf, 0x02, 0x31,
  0x0a, 0xdf, 0xfc, 0xe7, 0x42, 0xb7, 0xb6, 0x1c, 0xc6, 0xe7, 0x18, 0xe9,
  0x24, 0x21, 0xdf, 0xb8, 0x67, 0x56, 0xe2, 0xa5, 0x05, 0xf7, 0xa7, 0xed,
  0x31, 0xe3, 0x0a, 0xed, 0xe9, 0x31, 0x26, 0xbd, 0x48, 0x40, 0x38, 0xab,
  0x5d, 0xeb, 0x13, 0x68, 0x3f, 0xd1, 0xfb, 0x38, 0x2b, 0x37, 0xf2, 0x11,
  0xbd, 0x1a, 0xff, 0x16, 0x49, 0xf0, 0x1d, 0xf3, 0x36, 0x1f, 0xc4, 0x16,
  0xae, 0x34, 0xce, 0xa4, 0x3f, 0x22, 0xd8, 0xe1, 0x42, 0x42, 0xd5, 0xd1,
  0x15, 0x2d, 0x13, 0xd5, 0x2a, 0xb6, 0x33, 0x07, 0xa8, 0x2a, 0x63, 0x40,
  0x27, 0x4f, 0x1f, 0xb8, 0xc5, 0xdb, 0xc9, 0x1c, 0x3b, 0xcf, 0x32, 0xfc,
  0xa5, 0xcc, 0x1b, 0x17, 0xa2, 0x22, 0x41, 0x00, 0xa8, 0x3b, 0xff, 0x16,
  0x5b, 0xd7, 0xdd, 0xd4, 0xed, 0x0e, 0x56, 0xc8, 0x17, 0x3a, 0x62, 0xc2,
  0xef, 0xa4, 0x46, 0x16, 0x7f, 0xec, 0xe2, 0xef, 0x29, 0xe1, 0xe5, 0x30,
  0xbe, 0xaa, 0xdb, 0xd5, 0xcd, 0xcf, 0x46, 0xb0, 0xf0, 0x83, 0xfa, 0x06,
  0xf9, 0xaf, 0xe6, 0xf6, 0x10, 0x55, 0xe0, 0xb7, 0x23, 0x21, 0xb5, 0xe5,
  0xad, 0xd9, 0xc1, 0xa8, 0x84, 0x14, 0x1f, 0x9d, 0xa8, 0xa2, 0x0e, 0x32,
  0xbd, 0xde, 0x82, 0x8b, 0xfb, 0xb2, 0xfe, 0xdc, 0x2e, 0x43, 0xac, 0x3a,
  0x4e, 0xb1, 0x3b, 0x2a, 0xc7, 0xca, 0xda, 0x57, 0xe8, 0xa5, 0xf1, 0xfa,
  0xc6, 0xc3, 0x5b, 0x55, 0x4d, 0x4e, 0x0f, 0xeb, 0xe8, 0xee, 0xdc, 0x1c,
  0xe9, 0x3c, 0x52, 0x32, 0x49, 0x8a, 0x9e, 0x34, 0x2f, 0x08, 0xd2, 0x3b,
  0x0a, 0x4a, 0x5c, 0xd2, 0xaa, 0xb9, 0xc9, 0x14, 0x0d, 0x59, 0x28, 0xf7,
  0xd9, 0xff, 0xaa, 0x49, 0xfb, 0x0c, 0x16, 0x3a, 0x1c, 0xff, 0x11, 0x28,
  0x44, 0x2a, 0x44, 0x10, 0xf9, 0xe0, 0x3a, 0x33, 0x34, 0x1a, 0x36, 0xe9,
  0xda, 0xed, 0x31, 0xef, 0x0c, 0xe8, 0x00, 0x4c, 0x26, 0x3f, 0x29, 0x20,
  0xc4, 0x12, 0x67, 0x5b, 0x7a, 0xbc, 0x05, 0x5e, 0xbf, 0x7f, 0x3f, 0xe7,
  0xc4, 0x63, 0x41, 0x8a, 0x31, 0xec, 0xaa, 0x96, 0xdd, 0x3b, 0xe0, 0x58,
  0xd5, 0xaa, 0x20, 0x08, 0x2e, 0x4b, 0xf3, 0x02, 0x4a, 0x42, 0xfe, 0xf0,
  0xc0, 0xe5, 0x6a, 0x4d, 0xa1, 0xdc, 0xdb, 0x25, 0x01, 0x96, 0xf0, 0xf1,
  0xa3, 0xf0, 0x08, 0x45, 0xef, 0xac, 0x09, 0xe5, 0x6d, 0x4e, 0xd2, 0x52,
  0xa2, 0x1c, 0x34, 0x52, 0x11, 0xf9, 0x90, 0xe3, 0x72, 0x2c, 0xc8, 0x46,
  0xaf, 0x43, 0xfc, 0x2a, 0x64, 0xfc, 0x37, 0x8b, 0xe1, 0xaa, 0x2b, 0x46,
  0x50, 0x68, 0xe7, 0x2d, 0xa3, 0x58, 0xf4, 0xf9, 0x94, 0x22, 0x1a, 0xf6,
  0x39, 0xda, 0xf7, 0x4d, 0x4d, 0xf1, 0x60, 0xad, 0xe2, 0x19, 0x3e, 0xe8,
  0x00, 0xd0, 0xd6, 0x99, 0x9f, 0x59, 0x01, 0xa3, 0xf3, 0xb4, 0xe6, 0xbf,
  0x10, 0xb1, 0x10, 0x5c, 0xfd, 0x8f, 0xfc, 0x29, 0xdb, 0x19, 0x1a, 0x02,
  0xbc, 0x86, 0xdd, 0x45, 0xd3, 0xe1, 0xf6, 0xee, 0x1c, 0xa2, 0x92, 0xb4,
  0xe6, 0x9b, 0x99, 0x9d, 0x09, 0xe4, 0xd1, 0x1b, 0xa7, 0xbe, 0x04, 0x38,
  0x9c, 0x03, 0x9c, 0xe0, 0x14, 0x22, 0xdf, 0x59, 0xbc, 0x4b, 0x32, 0xdc,
  0xa6, 0x50, 0xcb, 0xd5, 0xa8, 0xd2, 0xe5, 0x3a, 0xeb, 0x40, 0xce, 0x1b,
  0xcb, 0xa8, 0xe8, 0x11, 0xbf, 0x4f, 0xe1, 0x81, 0x4a, 0xb2, 0xaf, 0x1d,
  0xa2, 0x5a, 0xbf, 0xb1, 0xb5, 0xda, 0xe4, 0xf8, 0x42, 0x2d, 0x1a, 0xb3,
  0x09, 0xab, 0x3c, 0x32, 0x90, 0xc3, 0xe6, 0xfd, 0x26, 0xd1, 0x0e, 0x1e,
  0x54, 0x53, 0x1c, 0x43, 0xba, 0x2e, 0xd7, 0x1b, 0x10, 0x53, 0xa2, 0x3b,
  0x49, 0xb8, 0x50, 0xd3, 0xe1, 0x19, 0x99, 0xcf, 0x9b, 0x11, 0x6a, 0x64,
  0xd3, 0x67, 0x27, 0xec, 0xa4, 0x66, 0xbd, 0xf8, 0xd1, 0x91, 0x1e, 0x88,
  0xf8, 0x98, 0x12, 0x45, 0x26, 0xbf, 0x0f, 0x18, 0x98, 0xf8, 0x3f, 0xd3,
  0x40, 0x30, 0x33, 0x0b, 0xb8, 0xc5, 0xd9, 0x6d, 0x30, 0xd0, 0x40, 0xc1,
  0x01, 0xc7, 0x18, 0xdb, 0xea, 0xbd, 0xa5, 0x1c, 0xab, 0x6d, 0xda, 0xda,
  0x87, 0xb6, 0xe8, 0xb5, 0xc2, 0xe1, 0x34, 0xf4, 0x65, 0x90, 0x60, 0x88,
  0x86, 0xde, 0x0c, 0x68, 0xd9, 0x34, 0x02, 0x1e, 0x86, 0x83, 0x58, 0x8b,
  0x22, 0xfa, 0xd0, 0xf8, 0xbf, 0xcf, 0x57, 0xcb, 0xf7, 0xc6, 0x14, 0xce,
  0x95, 0x39, 0x83, 0x2c, 0x42, 0x85, 0x43, 0x44, 0x52, 0x48, 0x01, 0x5a,
  0x34, 0xdb, 0x3c, 0x1e, 0x0c, 0xfa, 0x91, 0xbe, 0x39, 0x82, 0x52, 0x94,
  0xbd, 0x62, 0xdd, 0x9a, 0x9e, 0xa8, 0xb2, 0xe7, 0xe6, 0x07, 0x9f, 0xd2,
  0x84, 0x49, 0x16, 0xd0, 0xec, 0xde, 0x45, 0xe3, 0xed, 0x1f, 0x81, 0x68,
  0x00, 0x00, 0x00, 0x00, 0x00, 0x00, 0x00, 0x00, 0xca, 0xf5, 0xff, 0xff,
  0x04, 0x00, 0x00, 0x00, 0x28, 0x00, 0x00, 0x00, 0x00, 0x00, 0x00, 0x00,
  0x00, 0x00, 0x00, 0x00, 0x00, 0x00, 0x00, 0x00, 0x00, 0x00, 0x00, 0x00,
  0x00, 0x00, 0x00, 0x00, 0x00, 0x00, 0x00, 0x00, 0x00, 0x00, 0x00, 0x00,
  0x00, 0x00, 0x00, 0x00, 0x00, 0x00, 0x00, 0x00, 0x00, 0x00, 0x00, 0x00,
  0x00, 0x00, 0x00, 0x00, 0x00, 0x00, 0x00, 0x00, 0x00, 0x00, 0x00, 0x00,
  0x0a, 0xf6, 0xff, 0xff, 0x04, 0x00, 0x00, 0x00, 0x9e, 0x07, 0x00, 0x00,
  0x81, 0xab, 0x11, 0x46, 0xd3, 0x05, 0x0a, 0x04, 0xd2, 0x46, 0x59, 0xd7,
  0x2e, 0xb1, 0xaf, 0x4d, 0xd7, 0x26, 0x0b, 0x0c, 0xc1, 0xef, 0x46, 0x40,
  0xde, 0x0b, 0xba, 0xd1, 0x53, 0x3c, 0x24, 0x03, 0xd5, 0x9b, 0x3b, 0xc6,
  0x00, 0xd0, 0xd7, 0x92, 0x06, 0x48, 0xfc, 0xce, 0x32, 0xe2, 0xb8, 0xe9,
  0xeb, 0xc7, 0x46, 0xbb, 0xce, 0x25, 0x4d, 0xf6, 0xe3, 0x23, 0x00, 0x0f,
  0x48, 0xea, 0x15, 0x05, 0xf9, 0x08, 0x34, 0xc1, 0x17, 0x39, 0x43, 0x6c,
  0xee, 0xe8, 0xc7, 0xd6, 0x21, 0x62, 0x49, 0xb6, 0xe4, 0x26, 0xa9, 0x41,
  0xdf, 0x4f, 0x10, 0x04, 0x3a, 0xd9, 0x32, 0xbf, 0xc1, 0x18, 0xad, 0x92,
  0x8b, 0xf5, 0xf2, 0x3e, 0x49, 0x43, 0xc8, 0x7f, 0x91, 0x41, 0xec, 0x47,
  0x0a, 0x1e, 0xdc, 0xd1, 0x96, 0xd8, 0x4c, 0x0b, 0xd3, 0x33, 0xc7, 0xca,
  0x30, 0xd8, 0xdd, 0x65, 0xbf, 0x54, 0x66, 0xac, 0x9b, 0x10, 0xcc, 0x2c,
  0x50, 0x67, 0xaf, 0xd7, 0xff, 0xf4, 0xd9, 0x18, 0xd0, 0x0e, 0x46, 0xc9,
  0xf5, 0x7f, 0x05, 0x0d, 0xda, 0x11, 0xd4, 0xf1, 0xfd, 0xbd, 0xf2, 0xe4,
  0x9b, 0xc3, 0x13, 0x50, 0x2c, 0x48, 0x3c, 0x2d, 0x15, 0xda, 0x35, 0x42,
  0x0c, 0x75, 0x0c, 0xdb, 0x03, 0xc2, 0xa7, 0x0b, 0x4a, 0xb8, 0xc4, 0xf8,
  0x21, 0xe7, 0xa1, 0x2d, 0xff, 0x42, 0x6c, 0x41, 0xfe, 0xfd, 0x02, 0x27,
  0xe6, 0x02, 0x37, 0xcc, 0xc5, 0xf4, 0x12, 0xf7, 0xf2, 0x56, 0x2b, 0x0d,
  0xe1, 0xfd, 0xc0, 0x59, 0x18, 0x8f, 0x16, 0xff, 0x4c, 0xcf, 0x51, 0xe7,
  0x5c, 0xca, 0x5c, 0xf9, 0xd7, 0xf8, 0xa9, 0xdf, 0xfd, 0xf5, 0xbb, 0x3d,
  0x3c, 0xde, 0x03, 0xd7, 0x2c, 0x19, 0xcd, 0x81, 0xec, 0x47, 0x1e, 0xd1,
  0x40, 0x0c, 0x46, 0xee, 0x46, 0xc2, 0x27, 0xf2, 0x06, 0xb5, 0x3f, 0x35,
  0x1c, 0xec, 0xb3, 0x13, 0x2f, 0x4f, 0x22, 0xcb, 0x1b, 0x81, 0x59, 0x40,
  0xe8, 0x26, 0x37, 0xc4, 0xfe, 0xdc, 0xfd, 0xd5, 0x1a, 0xd3, 0xb9, 0xc1,
  0xe8, 0x0f, 0xfc, 0xcf, 0xf1, 0x0e, 0x26, 0x48, 0x29, 0x07, 0xd2, 0xe6,
  0xd1, 0xb4, 0x04, 0x18, 0x3f, 0x06, 0xc0, 0x1d, 0x2c, 0xde, 0xd0, 0x78,
  0x9c, 0x48, 0xdf, 0xac, 0xf1, 0x31, 0xbd, 0x56, 0xf9, 0x0d, 0x0f, 0x3b,
  0x08, 0xe1, 0x37, 0xf7, 0x51, 0x1f, 0xc4, 0xbd, 0xde, 0x49, 0xf1, 0x1c,
  0xe5, 0x1a, 0x7f, 0x16, 0xd0, 0x15, 0xd5, 0xb5, 0xc8, 0x4d, 0xe7, 0x13,
  0xf7, 0x2f, 0x3a, 0xb6, 0x44, 0x94, 0x00, 0xe8, 0xe5, 0x27, 0xac, 0x4d,
  0x2c, 0x02, 0x20, 0xcf, 0x54, 0x73, 0xc0, 0x28, 0xb1, 0xeb, 0x35, 0xf1,
  0x09, 0xe7, 0x47, 0xc1, 0x01, 0xd0, 0xe8, 0xd9, 0xed, 0x3e, 0x92, 0xb9,
  0x48, 0xcf, 0xd5, 0xd1, 0xdd, 0x33, 0x4b, 0x2a, 0x18, 0x37, 0xbb, 0x16,
  0x36, 0x30, 0xf9, 0x07, 0x26, 0xf2, 0xd8, 0x65, 0xe5, 0x04, 0xc8, 0xe1,
  0x40, 0x15, 0xae, 0xcf, 0xf2, 0x19, 0x21, 0x0f, 0x14, 0xca, 0x31, 0xd6,
  0x14, 0x61, 0x35, 0xd5, 0x16, 0xfb, 0xf9, 0xee, 0xf2, 0x36, 0x93, 0xe1,
  0xc6, 0x22, 0x45, 0x20, 0xea, 0xf8, 0xa5, 0xf1, 0x12, 0x0a, 0x54, 0xc9,
  0xfe, 0xc7, 0x27, 0x39, 0x01, 0xc5, 0xf8, 0x01, 0xcd, 0x49, 0x3f, 0x7f,
  0xf4, 0x35, 0x11, 0x25, 0x5d, 0x47, 0xcb, 0x46, 0x38, 0xd2, 0x3c, 0xe8,
  0xde, 0xdc, 0x53, 0xed, 0x41, 0xe0, 0xfa, 0xbd, 0xeb, 0x19, 0xf9, 0x03,
  0x26, 0x99, 0x29, 0x11, 0xeb, 0xfd, 0x38, 0xa4, 0x19, 0xdf, 0xbd, 0x8e,
  0x26, 0x16, 0x8b, 0x1b, 0x52, 0x30, 0x2b, 0x21, 0xb7, 0x2b, 0xd5, 0x1b,
  0xad, 0x5e, 0x2a, 0xbc, 0xd3, 0x5b, 0x36, 0x10, 0x01, 0xb3, 0x57, 0xf4,
  0xc3, 0x39, 0xaf, 0x40, 0x81, 0x39, 0x0f, 0xd9, 0xee, 0xe7, 0xde, 0xdd,
  0xd3, 0xad, 0x5a, 0x99, 0x16, 0xe0, 0xc7, 0x38, 0xf7, 0xbe, 0xbb, 0xb8,
  0x07, 0xe9, 0xd2, 0xdb, 0x30, 0xd9, 0xeb, 0xff, 0xc3, 0xb1, 0x27, 0x2c,
  0x02, 0x1e, 0x24, 0x2d, 0xf0, 0xe2, 0xfe, 0xf0, 0xe3, 0xd8, 0xf4, 0xcc,
  0xb2, 0x15, 0xda, 0xca, 0xeb, 0xb9, 0xfd, 0x81, 0x1b, 0x27, 0x78, 0x43,
  0xd0, 0x40, 0xc0, 0x12, 0x07, 0xcd, 0x3c, 0xf2, 0x68, 0xcd, 0xe1, 0xcb,
  0x03, 0xe6, 0x0c, 0xf9, 0x33, 0x32, 0x04, 0xfb, 0xf4, 0xe0, 0x3a, 0x6b,
  0x08, 0xd9, 0xae, 0xe7, 0xee, 0xe8, 0xf8, 0xcd, 0xf8, 0x1b, 0xe9, 0xc2,
  0x7f, 0x4b, 0x59, 0xe1, 0xbb, 0xc2, 0xc2, 0xc8, 0x0b, 0x09, 0xd8, 0x77,
  0xb5, 0x53, 0x06, 0x8b, 0xe2, 0xdf, 0xc9, 0x4c, 0x08, 0x2e, 0x11, 0xe2,
  0x3b, 0xa9, 0xb6, 0xac, 0xb3, 0x3c, 0x41, 0x35, 0x2e, 0xf5, 0xd8, 0xfa,
  0x1f, 0x54, 0x4f, 0xee, 0xee, 0x90, 0x31, 0xd6, 0xc0, 0xbd, 0x0d, 0xc1,
  0x07, 0x04, 0xce, 0xea, 0xda, 0x1a, 0xd1, 0xcd, 0x1f, 0xe1, 0x0e, 0x32,
  0xca, 0xce, 0xf5, 0x65, 0x17, 0xd3, 0xf0, 0x81, 0x25, 0xfb, 0x56, 0x11,
  0x10, 0xed, 0xd7, 0x12, 0x13, 0x6c, 0x50, 0xe9, 0xf8, 0x25, 0x03, 0x2e,
  0xbc, 0x1c, 0x23, 0xea, 0x28, 0x20, 0xd1, 0xc8, 0xd4, 0xca, 0x3c, 0x19,
  0xf6, 0xd6, 0xd9, 0x0e, 0xdd, 0x35, 0x42, 0x39, 0x52, 0x47, 0xa7, 0xdd,
  0xfa, 0x44, 0x2e, 0x08, 0x07, 0xd7, 0x35, 0x63, 0xfe, 0xd9, 0x72, 0x07,
  0xa0, 0x7f, 0xed, 0x1e, 0xd0, 0x1e, 0xb4, 0x73, 0x01, 0xec, 0xbc, 0x44,
  0x22, 0x69, 0x13, 0xb2, 0x98, 0xd7, 0x4a, 0x60, 0x4b, 0xcb, 0x2d, 0x81,
  0xb3, 0x05, 0x10, 0x08, 0x4f, 0xf2, 0xcd, 0x58, 0x9e, 0x3d, 0xa2, 0xe0,
  0xb2, 0x18, 0xcf, 0x4b, 0x3d, 0x25, 0x18, 0xfe, 0x40, 0x16, 0xa4, 0xc3,
  0x52, 0xae, 0x91, 0x19, 0x97, 0x7f, 0x98, 0x04, 0xb0, 0xc4, 0x59, 0x0c,
  0x2e, 0xa6, 0xc5, 0x41, 0x33, 0xf4, 0x4f, 0xdf, 0xcc, 0x04, 0xd5, 0xe7,
  0xd9, 0x57, 0xee, 0x07, 0xd8, 0x21, 0x0d, 0xde, 0x27, 0xc5, 0x29, 0x2d,
  0xe3, 0xf6, 0x7f, 0xeb, 0x1b, 0x18, 0x05, 0xbd, 0xec, 0x48, 0xd6, 0xc5,
  0x38, 0x1d, 0x06, 0x73, 0x8f, 0x90, 0xf7, 0xfa, 0x37, 0x22, 0xdb, 0x12,
  0x1d, 0xf1, 0x38, 0x0c, 0xc3, 0x28, 0x21, 0x29, 0xfd, 0xd1, 0xc6, 0x28,
  0x19, 0xb6, 0xfc, 0xfd, 0xbc, 0xca, 0xab, 0x14, 0x0c, 0x23, 0xee, 0x34,
  0xa3, 0x22, 0x17, 0x27, 0xf8, 0x05, 0x81, 0xc3, 0xf4, 0xc3, 0x09, 0x08,
  0x0a, 0x91, 0x16, 0x37, 0x49, 0x4c, 0xcc, 0x94, 0xde, 0x2a, 0xd6, 0x16,
  0xc1, 0xf9, 0x26, 0xd5, 0x54, 0x48, 0x30, 0x47, 0xad, 0xea, 0xfc, 0x02,
  0x23, 0x0f, 0x9a, 0x33, 0xde, 0xee, 0x0e, 0xb8, 0x3a, 0xcd, 0x12, 0xe8,
  0x25, 0x2f, 0x47, 0xb1, 0xef, 0xf0, 0xdc, 0xfd, 0xb1, 0x3f, 0xb6, 0x9f,
  0xd0, 0x37, 0x1a, 0xff, 0x00, 0xfc, 0xd0, 0xb6, 0xea, 0xd2, 0xe2, 0x19,
  0x4d, 0x41, 0x3f, 0x3e, 0xdf, 0x08, 0xfd, 0xe6, 0x40, 0xf4, 0x15, 0xc5,
  0xe4, 0x9d, 0x5c, 0x94, 0x09, 0x42, 0x4f, 0x28, 0x03, 0xbe, 0xf2, 0x26,
  0x06, 0x2e, 0x81, 0x01, 0xdd, 0x0c, 0x23, 0xbb, 0x90, 0x00, 0x2f, 0x2c,
  0x14, 0x2b, 0xda, 0xda, 0xd0, 0xa3, 0xda, 0xd4, 0x20, 0x50, 0x40, 0x1c,
  0xdf, 0xf1, 0xbb, 0x8b, 0xa3, 0x13, 0x3b, 0xab, 0xf0, 0x6c, 0xca, 0xed,
  0x49, 0xce, 0x18, 0x4e, 0x9f, 0xa3, 0xe5, 0xe3, 0x0d, 0x14, 0x4e, 0xa6,
  0x16, 0x3f, 0x6a, 0xe8, 0x69, 0x36, 0xf3, 0x76, 0x04, 0x36, 0x2d, 0xf2,
  0x01, 0x5b, 0xd5, 0x24, 0x0b, 0xc4, 0x14, 0x0e, 0x63, 0xdf, 0xfa, 0xb7,
  0x1d, 0xed, 0xe8, 0x12, 0xc5, 0x2a, 0x4d, 0xc3, 0x81, 0x72, 0x14, 0xec,
  0xc9, 0x29, 0xde, 0xa0, 0x8b, 0xdc, 0xf3, 0xa1, 0x81, 0xef, 0x0e, 0x1c,
  0x0d, 0xdd, 0x1b, 0xa5, 0xd7, 0x48, 0x42, 0x31, 0xcb, 0xe0, 0xa6, 0xd4,
  0x35, 0xca, 0xf1, 0xd8, 0xe8, 0xce, 0x29, 0xd5, 0xf2, 0x02, 0xfa, 0x08,
  0xf4, 0x0d, 0x12, 0x58, 0x4f, 0x14, 0x4e, 0xd4, 0xdd, 0xd4, 0xd6, 0xeb,
  0xfc, 0x38, 0x6d, 0x90, 0x03, 0xd0, 0x3d, 0x3a, 0x2e, 0xd8, 0xba, 0x15,
  0x23, 0x46, 0x77, 0x37, 0x0d, 0xd5, 0xbb, 0xf7, 0xb4, 0xf7, 0x36, 0x06,
  0x4d, 0xc2, 0xc4, 0xe8, 0x5a, 0x1f, 0x29, 0xf9, 0xca, 0x10, 0xb6, 0xe0,
  0xa8, 0xcb, 0xe1, 0x18, 0x38, 0x5d, 0x4b, 0x51, 0x30, 0x29, 0xaf, 0xfa,
  0x1c, 0x46, 0x19, 0x42, 0x82, 0xa0, 0xa3, 0x25, 0x2f, 0xf3, 0x4b, 0x45,
  0x4b, 0x2e, 0xf9, 0xdc, 0xac, 0x7f, 0x56, 0x56, 0x08, 0xbc, 0x32, 0x0c,
  0x44, 0xb4, 0xf8, 0x2f, 0xea, 0x6b, 0x4f, 0xa4, 0xe7, 0x2c, 0x1b, 0xca,
  0x4a, 0x0b, 0xc2, 0x27, 0xb5, 0x2b, 0xb5, 0x40, 0x7f, 0x54, 0x02, 0x31,
  0xf9, 0x67, 0x58, 0x97, 0x4b, 0xeb, 0xc8, 0x0a, 0x9d, 0xf2, 0xd6, 0xbb,
  0xf7, 0x1f, 0x40, 0xd7, 0xfe, 0x11, 0x1c, 0xc3, 0x6a, 0x9b, 0x3f, 0xe7,
  0x57, 0x1b, 0x3e, 0xa9, 0xd0, 0xb5, 0x2b, 0xa4, 0x22, 0x54, 0x00, 0xdf,
  0x9d, 0x5a, 0xb2, 0x2b, 0x54, 0xe3, 0xfe, 0xd4, 0xcd, 0x37, 0x75, 0xde,
  0x5d, 0xda, 0xbb, 0x17, 0x22, 0x01, 0xe0, 0xa5, 0xd1, 0x1c, 0x0f, 0xd8,
  0xf5, 0x33, 0x19, 0xfd, 0x23, 0x3f, 0xd7, 0x07, 0x05, 0x0d, 0x58, 0x1b,
  0x26, 0x22, 0x52, 0x47, 0xd9, 0x3f, 0x1e, 0xa6, 0x05, 0x1e, 0x34, 0x53,
  0x06, 0x00, 0xda, 0x74, 0x24, 0x02, 0x01, 0xd9, 0xcd, 0x3b, 0x59, 0xec,
  0xd4, 0xc3, 0x24, 0x0b, 0x7f, 0xcb, 0x13, 0x46, 0x1d, 0xc9, 0xf3, 0x05,
  0x0e, 0x24, 0x2f, 0x05, 0xee, 0x5f, 0x37, 0x98, 0xf9, 0x36, 0xf8, 0xd6,
  0x3d, 0x9f, 0xe5, 0x1f, 0x87, 0xa6, 0xfe, 0xe8, 0xb3, 0x26, 0x53, 0x4b,
  0x66, 0xf7, 0x3e, 0x26, 0xce, 0x9f, 0x6d, 0xbb, 0xd0, 0xb8, 0xcf, 0x90,
  0x81, 0xba, 0x12, 0x1c, 0x29, 0xc7, 0x51, 0x0b, 0x59, 0x34, 0xf3, 0x3d,
  0x29, 0x2b, 0xbf, 0xec, 0x0f, 0x05, 0x0a, 0x7f, 0xd8, 0x29, 0xd0, 0xb7,
  0x19, 0xc0, 0x39, 0xfe, 0x10, 0x24, 0x22, 0xb5, 0x3d, 0x30, 0xfa, 0xb5,
  0x10, 0x30, 0xf7, 0x37, 0xc2, 0x22, 0x0a, 0xd4, 0x1b, 0xce, 0x10, 0xfd,
  0x57, 0x53, 0x24, 0x22, 0x55, 0x97, 0xc4, 0xea, 0x48, 0x25, 0xe5, 0xd8,
  0x03, 0xc3, 0x10, 0xbe, 0x30, 0x58, 0xb7, 0xa5, 0xaf, 0x52, 0x46, 0x98,
  0xe7, 0xf8, 0xc0, 0x2c, 0xf6, 0xc5, 0xf9, 0xae, 0x47, 0xe4, 0x6f, 0xff,
  0xe1, 0xfd, 0x04, 0xc1, 0x48, 0xb3, 0xff, 0x95, 0xe1, 0xc6, 0xd1, 0xd3,
  0x27, 0x88, 0xd4, 0x9c, 0x2c, 0xe7, 0x34, 0xc0, 0xad, 0x0e, 0x18, 0x81,
  0xb8, 0x48, 0x8d, 0x37, 0xf4, 0x02, 0xb7, 0xed, 0xd6, 0xc8, 0xcb, 0x74,
  0xb0, 0x06, 0x89, 0x93, 0xe3, 0xbf, 0x79, 0x8d, 0xdb, 0xbd, 0x5d, 0xbf,
  0xb7, 0xb3, 0x09, 0xa6, 0x70, 0x15, 0xdc, 0xfc, 0x29, 0xd4, 0xa4, 0xe3,
  0xf2, 0x9b, 0x1c, 0x75, 0x3e, 0x30, 0xa1, 0xfc, 0x2d, 0x3b, 0x15, 0x66,
  0x57, 0xaf, 0x74, 0x8d, 0xb3, 0x11, 0xdc, 0x09, 0x81, 0xf8, 0x68, 0xce,
  0x9f, 0xcd, 0x06, 0xa6, 0x3f, 0x6c, 0xdd, 0xcf, 0x12, 0xe9, 0xec, 0x20,
  0x1d, 0x00, 0x68, 0x0c, 0x06, 0xfb, 0xdf, 0x37, 0xa8, 0x7f, 0xb5, 0x3a,
  0x37, 0x46, 0xd6, 0x5f, 0xf2, 0xea, 0x21, 0xe7, 0x3f, 0xe9, 0x3c, 0x2a,
  0x9a, 0x46, 0xe5, 0x1c, 0xe1, 0xcd, 0xee, 0xcd, 0x02, 0x2c, 0xcd, 0xf2,
  0x6e, 0x94, 0x65, 0xc5, 0xa3, 0x48, 0xa5, 0xc8, 0x4c, 0xb4, 0x1c, 0x11,
  0x43, 0x12, 0xbd, 0x2d, 0x40, 0x0c, 0x59, 0xbc, 0xcc, 0x1e, 0xf3, 0xe7,
  0x4f, 0x5f, 0x4f, 0x99, 0xf3, 0x0c, 0x14, 0xd7, 0xed, 0xf6, 0xc6, 0xd8,
  0xf6, 0x3f, 0xb7, 0x7f, 0x86, 0xc6, 0x4e, 0xea, 0x99, 0x4f, 0xc4, 0xa1,
  0x50, 0xb0, 0x57, 0x89, 0x45, 0x97, 0x29, 0xa8, 0x03, 0x86, 0x20, 0x29,
  0xf6, 0x08, 0x10, 0x74, 0xdd, 0x16, 0x2e, 0xc5, 0xc9, 0xaa, 0xd4, 0x12,
  0x33, 0xcc, 0x5c, 0x0e, 0x79, 0xdf, 0x2f, 0x07, 0xb4, 0xe4, 0xb9, 0xcb,
  0x48, 0x52, 0x48, 0x23, 0x4e, 0x92, 0xca, 0xe6, 0x66, 0x23, 0xfc, 0xe3,
  0x07, 0xe0, 0x69, 0xcf, 0x41, 0x58, 0xe5, 0xde, 0xb0, 0x39, 0x43, 0x29,
  0x08, 0x39, 0xc5, 0xf6, 0xd4, 0xfd, 0xda, 0xcc, 0xb8, 0x28, 0xf2, 0xa5,
  0x5f, 0xfe, 0xd2, 0xdf, 0x21, 0x67, 0xe5, 0x23, 0x91, 0xe3, 0xbd, 0x35,
  0x22, 0x36, 0xbe, 0x81, 0xf1, 0xa7, 0xe4, 0x0f, 0xd0, 0x04, 0x06, 0x27,
  0xf6, 0x53, 0xef, 0xcc, 0x30, 0x1a, 0x14, 0xda, 0xfa, 0x56, 0x7f, 0x47,
  0xda, 0xef, 0xf0, 0xfc, 0xc4, 0xd9, 0xdc, 0xe3, 0x03, 0x11, 0xe8, 0x11,
  0x66, 0x46, 0x01, 0x00, 0x0f, 0x34, 0xfb, 0x00, 0xf0, 0x19, 0x1a, 0xd1,
  0x6d, 0x65, 0xe3, 0x0c, 0x57, 0x31, 0x13, 0x3b, 0x2a, 0x1a, 0x27, 0xb7,
  0x07, 0x11, 0x03, 0xe3, 0xd6, 0xf1, 0xf3, 0x06, 0xc7, 0xc7, 0x24, 0x18,
  0x0a, 0x0b, 0x44, 0x34, 0xde, 0xbc, 0xe4, 0x02, 0x35, 0xeb, 0xf2, 0x33,
  0xc8, 0xe7, 0xc8, 0x7b, 0xe1, 0xae, 0xd7, 0xc3, 0xd2, 0x40, 0x3a, 0xd8,
  0xf1, 0xf7, 0xf9, 0xef, 0x05, 0xd9, 0xac, 0xa5, 0xe4, 0x10, 0x14, 0x4c,
  0x11, 0x12, 0xbb, 0x24, 0xdf, 0x46, 0x31, 0xa1, 0x0b, 0x2c, 0x2d, 0x07,
  0xf8, 0xea, 0x4d, 0xfc, 0x08, 0xf5, 0xff, 0x21, 0x03, 0x8f, 0x12, 0xe1,
  0xff, 0xcf, 0x39, 0x4e, 0x24, 0x1a, 0xe6, 0x5d, 0x4b, 0xd1, 0x81, 0x26,
  0x34, 0xcd, 0xe4, 0xd5, 0xd5, 0xd1, 0xe0, 0xcc, 0x42, 0x50, 0x6d, 0x44,
  0xba, 0xd7, 0x9f, 0xd1, 0xdd, 0xcd, 0x1a, 0xc7, 0x06, 0x66, 0xee, 0x7f,
  0x61, 0x0e, 0x3f, 0xf5, 0x37, 0x45, 0x1f, 0x35, 0xea, 0x07, 0x62, 0x9c,
  0x61, 0x68, 0x27, 0x28, 0x54, 0x16, 0x0d, 0xc5, 0xf5, 0x04, 0x48, 0x56,
  0x40, 0x7b, 0x57, 0xf8, 0xf7, 0xd7, 0x29, 0xce, 0x42, 0x38, 0x19, 0xe4,
  0x36, 0x9d, 0x49, 0x9f, 0xcd, 0xf5, 0x3e, 0x25, 0xef, 0x01, 0xe6, 0x33,
  0xba, 0xe9, 0x33, 0xba, 0x12, 0xdd, 0x47, 0x1e, 0x2b, 0x0b, 0x49, 0x13,
  0x81, 0xb2, 0xc0, 0xdf, 0xc3, 0xcc, 0xe8, 0x2a, 0xa8, 0x00, 0x65, 0xf1,
  0x19, 0x39, 0x49, 0x92, 0xc6, 0x3a, 0xe1, 0x3a, 0x33, 0x6a, 0x33, 0xd8,
  0xed, 0xa9, 0x39, 0x2f, 0xc1, 0xc3, 0x34, 0x66, 0x3a, 0xb5, 0x2f, 0x05,
  0xeb, 0x07, 0xb1, 0x19, 0x1b, 0xb4, 0xe5, 0xe5, 0x12, 0x04, 0xcf, 0x30,
  0x28, 0x25, 0x1f, 0xeb, 0x4b, 0xb8, 0x00, 0x00, 0x00, 0x00, 0x00, 0x00,
  0xba, 0xfd, 0xff, 0xff, 0x04, 0x00, 0x00, 0x00, 0x78, 0x00, 0x00, 0x00,
  0x00, 0x00, 0x00, 0x00, 0x00, 0x00, 0x00, 0x00, 0x00, 0x00, 0x00, 0x00,
  0x00, 0x00, 0x00, 0x00, 0x00, 0x00, 0x00, 0x00, 0x00, 0x00, 0x00, 0x00,
  0x00, 0x00, 0x00, 0x00, 0x00, 0x00, 0x00, 0x00, 0x00, 0x00, 0x00, 0x00,
  0x00, 0x00, 0x00, 0x00, 0x00, 0x00, 0x00, 0x00, 0x00, 0x00, 0x00, 0x00,
  0x00, 0x00, 0x00, 0x00, 0x00, 0x00, 0x00, 0x00, 0x00, 0x00, 0x00, 0x00,
  0x00, 0x00, 0x00, 0x00, 0x00, 0x00, 0x00, 0x00, 0x00, 0x00, 0x00, 0x00,
  0x00, 0x00, 0x00, 0x00, 0x00, 0x00, 0x00, 0x00, 0x00, 0x00, 0x00, 0x00,
  0x00, 0x00, 0x00, 0x00, 0x00, 0x00, 0x00, 0x00, 0x00, 0x00, 0x00, 0x00,
  0x00, 0x00, 0x00, 0x00, 0x00, 0x00, 0x00, 0x00, 0x00, 0x00, 0x00, 0x00,
  0x00, 0x00, 0x00, 0x00, 0x00, 0x00, 0x00, 0x00, 0x00, 0x00, 0x00, 0x00,
  0x00, 0x00, 0x00, 0x00, 0x00, 0x00, 0x00, 0x00, 0x00, 0x00, 0x00, 0x00,
  0x4a, 0xfe, 0xff, 0xff, 0x04, 0x00, 0x00, 0x00, 0x1e, 0x00, 0x00, 0x00,
  0xdf, 0x91, 0x85, 0x6d, 0x37, 0x13, 0x51, 0x28, 0xa8, 0xf4, 0x4b, 0xf4,
  0x67, 0xa1, 0x0d, 0xdb, 0xe2, 0x33, 0x4c, 0x0a, 0x81, 0xfa, 0x10, 0x41,
  0x71, 0x32, 0xd2, 0xec, 0x1c, 0xc9, 0x00, 0x00, 0x00, 0x00, 0x00, 0x00,
  0x7a, 0xfe, 0xff, 0xff, 0x04, 0x00, 0x00, 0x00, 0x0c, 0x00, 0x00, 0x00,
  0x8b, 0x00, 0x00, 0x00, 0x55, 0xff, 0xff, 0xff, 0x22, 0x00, 0x00, 0x00,
  0x00, 0x00, 0x00, 0x00, 0x00, 0x00, 0x00, 0x00, 0x9a, 0xfe, 0xff, 0xff,
  0x04, 0x00, 0x00, 0x00, 0x08, 0x00, 0x00, 0x00, 0xff, 0xff, 0xff, 0xff,
  0x0a, 0x00, 0x00, 0x00, 0x00, 0x00, 0x00, 0x00, 0x00, 0x00, 0x00, 0x00,
  0x00, 0x00, 0x00, 0x00, 0xba, 0xfe, 0xff, 0xff, 0x04, 0x00, 0x00, 0x00,
  0x0a, 0x00, 0x00, 0x00, 0xa8, 0x9c, 0x83, 0x7f, 0x68, 0x41, 0x4a, 0xd8,
  0xde, 0xe2, 0x00, 0x00, 0x00, 0x00, 0x00, 0x00, 0x00, 0x00, 0x00, 0x00,
  0xda, 0xfe, 0xff, 0xff, 0x04, 0x00, 0x00, 0x00, 0x1e, 0x00, 0x00, 0x00,
  0x6c, 0x24, 0x02, 0x5d, 0x2b, 0xf4, 0xdf, 0x39, 0xe0, 0xe6, 0x05, 0x25,
  0xdd, 0x53, 0x0a, 0x7f, 0x28, 0xfd, 0x0d, 0x29, 0xdc, 0x1d, 0x2b, 0xf2,
  0xec, 0x57, 0x0c, 0x0c, 0x59, 0x57, 0x00, 0x00, 0x00, 0x00, 0x00, 0x00,
  0x00, 0x00, 0x00, 0x00, 0x00, 0x00, 0x00, 0x00, 0x94, 0xe9, 0xff, 0xff,
  0x00, 0x00, 0x00, 0x00, 0x00, 0x00, 0x00, 0x00, 0x00, 0x00, 0x00, 0x00,
  0xa4, 0xe9, 0xff, 0xff, 0x00, 0x00, 0x00, 0x00, 0x00, 0x00, 0x00, 0x00,
  0x0f, 0x00, 0x00, 0x00, 0x4d, 0x4c, 0x49, 0x52, 0x20, 0x43, 0x6f, 0x6e,
  0x76, 0x65, 0x72, 0x74, 0x65, 0x64, 0x2e, 0x00, 0x01, 0x00, 0x00, 0x00,
  0x14, 0x00, 0x00, 0x00, 0x00, 0x00, 0x0e, 0x00, 0x18, 0x00, 0x04, 0x00,
  0x08, 0x00, 0x0c, 0x00, 0x10, 0x00, 0x14, 0x00, 0x0e, 0x00, 0x00, 0x00,
  0xb8, 0x03, 0x00, 0x00, 0xac, 0x03, 0x00, 0x00, 0xa0, 0x03, 0x00, 0x00,
  0x14, 0x00, 0x00, 0x00, 0x04, 0x00, 0x00, 0x00, 0x04, 0x00, 0x00, 0x00,
  0x6d, 0x61, 0x69, 0x6e, 0x00, 0x00, 0x00, 0x00, 0x11, 0x00, 0x00, 0x00,
  0x64, 0x03, 0x00, 0x00, 0x34, 0x03, 0x00, 0x00, 0xd8, 0x02, 0x00, 0x00,
  0xa4, 0x02, 0x00, 0x00, 0x6c, 0x02, 0x00, 0x00, 0x38, 0x02, 0x00, 0x00,
  0xe8, 0x01, 0x00, 0x00, 0xc4, 0x01, 0x00, 0x00, 0x80, 0x01, 0x00, 0x00,
  0x5c, 0x01, 0x00, 0x00, 0x24, 0x01, 0x00, 0x00, 0x00, 0x01, 0x00, 0x00,
  0xc0, 0x00, 0x00, 0x00, 0x9c, 0x00, 0x00, 0x00, 0x64, 0x00, 0x00, 0x00,
  0x28, 0x00, 0x00, 0x00, 0x04, 0x00, 0x00, 0x00, 0xea, 0xfc, 0xff, 0xff,
  0x07, 0x00, 0x00, 0x00, 0x10, 0x00, 0x00, 0x00, 0x04, 0x00, 0x00, 0x00,
  0x01, 0x00, 0x00, 0x00, 0x20, 0x00, 0x00, 0x00, 0x01, 0x00, 0x00, 0x00,
  0x1e, 0x00, 0x00, 0x00, 0x92, 0xfd, 0xff, 0xff, 0x00, 0x00, 0x00, 0x09,
  0x05, 0x00, 0x00, 0x00, 0x24, 0x00, 0x00, 0x00, 0x18, 0x00, 0x00, 0x00,
  0x0c, 0x00, 0x00, 0x00, 0x00, 0x00, 0x06, 0x00, 0x08, 0x00, 0x04, 0x00,
  0x06, 0x00, 0x00, 0x00, 0x00, 0x00, 0x80, 0x3f, 0x01, 0x00, 0x00, 0x00,
  0x1e, 0x00, 0x00, 0x00, 0x01, 0x00, 0x00, 0x00, 0x1d, 0x00, 0x00, 0x00,
  0x2e, 0xfe, 0xff, 0xff, 0x00, 0x00, 0x00, 0x08, 0x04, 0x00, 0x00, 0x00,
  0x18, 0x00, 0x00, 0x00, 0x0c, 0x00, 0x00, 0x00, 0x04, 0x00, 0x00, 0x00,
  0xb8, 0xea, 0xff, 0xff, 0x01, 0x00, 0x00, 0x00, 0x1d, 0x00, 0x00, 0x00,
  0x03, 0x00, 0x00, 0x00, 0x1c, 0x00, 0x00, 0x00, 0x05, 0x00, 0x00, 0x00,
  0x04, 0x00, 0x00, 0x00, 0xa2, 0xfd, 0xff, 0xff, 0x10, 0x00, 0x00, 0x00,
  0x04, 0x00, 0x00, 0x00, 0x01, 0x00, 0x00, 0x00, 0x1c, 0x00, 0x00, 0x00,
  0x02, 0x00, 0x00, 0x00, 0x1b, 0x00, 0x00, 0x00, 0x03, 0x00, 0x00, 0x00,
  0x82, 0xfe, 0xff, 0xff, 0x00, 0x00, 0x00, 0x05, 0x03, 0x00, 0x00, 0x00,
  0x28, 0x00, 0x00, 0x00, 0x1c, 0x00, 0x00, 0x00, 0x04, 0x00, 0x00, 0x00,
  0xee, 0xfe, 0xff, 0xff, 0x01, 0x00, 0x00, 0x00, 0x05, 0x00, 0x00, 0x00,
  0x01, 0x00, 0x00, 0x00, 0x05, 0x00, 0x00, 0x00, 0x01, 0x00, 0x00, 0x00,
  0x1b, 0x00, 0x00, 0x00, 0x01, 0x00, 0x00, 0x00, 0x1a, 0x00, 0x00, 0x00,
  0xfe, 0xfd, 0xff, 0xff, 0x10, 0x00, 0x00, 0x00, 0x04, 0x00, 0x00, 0x00,
  0x01, 0x00, 0x00, 0x00, 0x1a, 0x00, 0x00, 0x00, 0x02, 0x00, 0x00, 0x00,
  0x19, 0x00, 0x00, 0x00, 0x0f, 0x00, 0x00, 0x00, 0xde, 0xfe, 0xff, 0xff,
  0x00, 0x00, 0x00, 0x0b, 0x02, 0x00, 0x00, 0x00, 0x1c, 0x00, 0x00, 0x00,
  0x10, 0x00, 0x00, 0x00, 0x04, 0x00, 0x00, 0x00, 0xfe, 0xe8, 0xff, 0xff,
  0x00, 0x00, 0x00, 0x01, 0x01, 0x00, 0x00, 0x00, 0x19, 0x00, 0x00, 0x00,
  0x02, 0x00, 0x00, 0x00, 0x18, 0x00, 0x00, 0x00, 0x02, 0x00, 0x00, 0x00,
  0x52, 0xfe, 0xff, 0xff, 0x10, 0x00, 0x00, 0x00, 0x04, 0x00, 0x00, 0x00,
  0x01, 0x00, 0x00, 0x00, 0x18, 0x00, 0x00, 0x00, 0x02, 0x00, 0x00, 0x00,
  0x17, 0x00, 0x00, 0x00, 0x0e, 0x00, 0x00, 0x00, 0x32, 0xff, 0xff, 0xff,
  0x00, 0x00, 0x00, 0x01, 0x01, 0x00, 0x00, 0x00, 0x24, 0x00, 0x00, 0x00,
  0x18, 0x00, 0x00, 0x00, 0x04, 0x00, 0x00, 0x00, 0xbe, 0xfe, 0xff, 0xff,
  0x00, 0x00, 0x00, 0x01, 0x01, 0x00, 0x00, 0x00, 0x01, 0x00, 0x00, 0x00,
  0x01, 0x00, 0x00, 0x00, 0x17, 0x00, 0x00, 0x00, 0x03, 0x00, 0x00, 0x00,
  0x16, 0x00, 0x00, 0x00, 0x09, 0x00, 0x00, 0x00, 0x08, 0x00, 0x00, 0x00,
  0xb2, 0xfe, 0xff, 0xff, 0x10, 0x00, 0x00, 0x00, 0x04, 0x00, 0x00, 0x00,
  0x01, 0x00, 0x00, 0x00, 0x16, 0x00, 0x00, 0x00, 0x02, 0x00, 0x00, 0x00,
  0x15, 0x00, 0x00, 0x00, 0x0d, 0x00, 0x00, 0x00, 0x2e, 0xff, 0xff, 0xff,
  0x00, 0x00, 0x00, 0x05, 0x03, 0x00, 0x00, 0x00, 0x38, 0x00, 0x00, 0x00,
  0x2c, 0x00, 0x00, 0x00, 0x14, 0x00, 0x00, 0x00, 0x00, 0x00, 0x0e, 0x00,
  0x14, 0x00, 0x00, 0x00, 0x04, 0x00, 0x08, 0x00, 0x0c, 0x00, 0x10, 0x00,
  0x0e, 0x00, 0x00, 0x00, 0x01, 0x00, 0x00, 0x00, 0x05, 0x00, 0x00, 0x00,
  0x01, 0x00, 0x00, 0x00, 0x05, 0x00, 0x00, 0x00, 0x01, 0x00, 0x00, 0x00,
  0x15, 0x00, 0x00, 0x00, 0x01, 0x00, 0x00, 0x00, 0x14, 0x00, 0x00, 0x00,
  0x1e, 0xff, 0xff, 0xff, 0x10, 0x00, 0x00, 0x00, 0x04, 0x00, 0x00, 0x00,
  0x01, 0x00, 0x00, 0x00, 0x14, 0x00, 0x00, 0x00, 0x02, 0x00, 0x00, 0x00,
  0x13, 0x00, 0x00, 0x00, 0x0c, 0x00, 0x00, 0x00, 0x00, 0x00, 0x0e, 0x00,
  0x18, 0x00, 0x08, 0x00, 0x0c, 0x00, 0x10, 0x00, 0x07, 0x00, 0x14, 0x00,
  0x0e, 0x00, 0x00, 0x00, 0x00, 0x00, 0x00, 0x0b, 0x02, 0x00, 0x00, 0x00,
  0x1c, 0x00, 0x00, 0x00, 0x10, 0x00, 0x00, 0x00, 0x04, 0x00, 0x00, 0x00,
  0x2e, 0xea, 0xff, 0xff, 0x00, 0x00, 0x00, 0x01, 0x01, 0x00, 0x00, 0x00,
  0x13, 0x00, 0x00, 0x00, 0x02, 0x00, 0x00, 0x00, 0x12, 0x00, 0x00, 0x00,
  0x01, 0x00, 0x00, 0x00, 0x82, 0xff, 0xff, 0xff, 0x10, 0x00, 0x00, 0x00,
  0x04, 0x00, 0x00, 0x00, 0x01, 0x00, 0x00, 0x00, 0x12, 0x00, 0x00, 0x00,
  0x02, 0x00, 0x00, 0x00, 0x11, 0x00, 0x00, 0x00, 0x0b, 0x00, 0x00, 0x00,
  0x00, 0x00, 0x0e, 0x00, 0x1a, 0x00, 0x08, 0x00, 0x0c, 0x00, 0x10, 0x00,
  0x07, 0x00, 0x14, 0x00, 0x0e, 0x00, 0x00, 0x00, 0x00, 0x00, 0x00, 0x01,
  0x01, 0x00, 0x00, 0x00, 0x30, 0x00, 0x00, 0x00, 0x24, 0x00, 0x00, 0x00,
  0x10, 0x00, 0x00, 0x00, 0x00, 0x00, 0x0a, 0x00, 0x10, 0x00, 0x07, 0x00,
  0x08, 0x00, 0x0c, 0x00, 0x0a, 0x00, 0x00, 0x00, 0x00, 0x00, 0x00, 0x01,
  0x01, 0x00, 0x00, 0x00, 0x01, 0x00, 0x00, 0x00, 0x01, 0x00, 0x00, 0x00,
  0x11, 0x00, 0x00, 0x00, 0x03, 0x00, 0x00, 0x00, 0x10, 0x00, 0x00, 0x00,
  0x07, 0x00, 0x00, 0x00, 0x06, 0x00, 0x00, 0x00, 0x00, 0x00, 0x0a, 0x00,
  0x0c, 0x00, 0x00, 0x00, 0x04, 0x00, 0x08, 0x00, 0x0a, 0x00, 0x00, 0x00,
  0x10, 0x00, 0x00, 0x00, 0x04, 0x00, 0x00, 0x00, 0x01, 0x00, 0x00, 0x00,
  0x10, 0x00, 0x00, 0x00, 0x02, 0x00, 0x00, 0x00, 0x00, 0x00, 0x00, 0x00,
  0x0a, 0x00, 0x00, 0x00, 0x00, 0x00, 0x0a, 0x00, 0x10, 0x00, 0x04, 0x00,
  0x08, 0x00, 0x0c, 0x00, 0x0a, 0x00, 0x00, 0x00, 0x06, 0x00, 0x00, 0x00,
  0x10, 0x00, 0x00, 0x00, 0x04, 0x00, 0x00, 0x00, 0x01, 0x00, 0x00, 0x00,
  0x00, 0x00, 0x00, 0x00, 0x01, 0x00, 0x00, 0x00, 0x1f, 0x00, 0x00, 0x00,
  0x01, 0x00, 0x00, 0x00, 0x20, 0x00, 0x00, 0x00, 0x01, 0x00, 0x00, 0x00,
  0x1f, 0x00, 0x00, 0x00, 0x21, 0x00, 0x00, 0x00, 0xb8, 0x13, 0x00, 0x00,
  0x18, 0x13, 0x00, 0x00, 0x8c, 0x12, 0x00, 0x00, 0x40, 0x12, 0x00, 0x00,
  0xc0, 0x11, 0x00, 0x00, 0x40, 0x11, 0x00, 0x00, 0x7c, 0x0f, 0x00, 0x00,
  0xb0, 0x0c, 0x00, 0x00, 0xdc, 0x0b, 0x00, 0x00, 0xa0, 0x0a, 0x00, 0x00,
  0x50, 0x0a, 0x00, 0x00, 0x00, 0x0a, 0x00, 0x00, 0xb0, 0x09, 0x00, 0x00,
  0x5c, 0x09, 0x00, 0x00, 0x0c, 0x09, 0x00, 0x00, 0xb8, 0x08, 0x00, 0x00,
  0x24, 0x08, 0x00, 0x00, 0x98, 0x07, 0x00, 0x00, 0x0c, 0x07, 0x00, 0x00,
  0x70, 0x06, 0x00, 0x00, 0xdc, 0x05, 0x00, 0x00, 0x48, 0x05, 0x00, 0x00,
  0xb4, 0x04, 0x00, 0x00, 0x28, 0x04, 0x00, 0x00, 0x9c, 0x03, 0x00, 0x00,
  0xf8, 0x02, 0x00, 0x00, 0x64, 0x02, 0x00, 0x00, 0xd0, 0x01, 0x00, 0x00,
  0x4c, 0x01, 0x00, 0x00, 0xc8, 0x00, 0x00, 0x00, 0x6c, 0x00, 0x00, 0x00,
  0x3c, 0x00, 0x00, 0x00, 0x04, 0x00, 0x00, 0x00, 0xd8, 0xff, 0xff, 0xff,
  0x18, 0x00, 0x00, 0x00, 0x04, 0x00, 0x00, 0x00, 0x08, 0x00, 0x00, 0x00,
  0x49, 0x64, 0x65, 0x6e, 0x74, 0x69, 0x74, 0x79, 0x00, 0x00, 0x00, 0x00,
  0x02, 0x00, 0x00, 0x00, 0x01, 0x00, 0x00, 0x00, 0x03, 0x00, 0x00, 0x00,
  0x0c, 0x00, 0x0c, 0x00, 0x04, 0x00, 0x00, 0x00, 0x00, 0x00, 0x08, 0x00,
  0x0c, 0x00, 0x00, 0x00, 0x1c, 0x00, 0x00, 0x00, 0x04, 0x00, 0x00, 0x00,
  0x0d, 0x00, 0x00, 0x00, 0x72, 0x65, 0x73, 0x68, 0x61, 0x70, 0x65, 0x5f,
  0x69, 0x6e, 0x70, 0x75, 0x74, 0x00, 0x00, 0x00, 0x02, 0x00, 0x00, 0x00,
  0x01, 0x00, 0x00, 0x00, 0x7d, 0x02, 0x00, 0x00, 0x3a, 0xed, 0xff, 0xff,
  0x00, 0x00, 0x00, 0x09, 0x44, 0x00, 0x00, 0x00, 0x1f, 0x00, 0x00, 0x00,
  0x28, 0x00, 0x00, 0x00, 0x04, 0x00, 0x00, 0x00, 0x14, 0xef, 0xff, 0xff,
  0x14, 0x00, 0x00, 0x00, 0x04, 0x00, 0x00, 0x00, 0x01, 0x00, 0x00, 0x00,
  0x80, 0xff, 0xff, 0xff, 0xff, 0xff, 0xff, 0xff, 0x01, 0x00, 0x00, 0x00,
  0x00, 0x00, 0x80, 0x3b, 0x0d, 0x00, 0x00, 0x00, 0x49, 0x64, 0x65, 0x6e,
  0x74, 0x69, 0x74, 0x79, 0x5f, 0x69, 0x6e, 0x74, 0x38, 0x00, 0x00, 0x00,
  0x02, 0x00, 0x00, 0x00, 0x01, 0x00, 0x00, 0x00, 0x03, 0x00, 0x00, 0x00,
  0x92, 0xed, 0xff, 0xff, 0x00, 0x00, 0x00, 0x09, 0x6c, 0x00, 0x00, 0x00,
  0x1e, 0x00, 0x00, 0x00, 0x44, 0x00, 0x00, 0x00, 0x04, 0x00, 0x00, 0x00,
  0x84, 0xed, 0xff, 0xff, 0x30, 0x00, 0x00, 0x00, 0x24, 0x00, 0x00, 0x00,
  0x18, 0x00, 0x00, 0x00, 0x04, 0x00, 0x00, 0x00, 0x01, 0x00, 0x00, 0x00,
  0xc9, 0xff, 0xff, 0xff, 0xff, 0xff, 0xff, 0xff, 0x00, 0x00, 0x00, 0x00,
  0x01, 0x00, 0x00, 0x00, 0xe7, 0xc6, 0x83, 0x3d, 0x01, 0x00, 0x00, 0x00,
  0xf2, 0x5f, 0x3b, 0x41, 0x01, 0x00, 0x00, 0x00, 0x9e, 0x4c, 0x96, 0xc0,
  0x19, 0x00, 0x00, 0x00, 0x73, 0x65, 0x71, 0x75, 0x65, 0x6e, 0x74, 0x69,
  0x61, 0x6c, 0x2f, 0x79, 0x5f, 0x70, 0x72, 0x65, 0x64, 0x2f, 0x42, 0x69,
  0x61, 0x73, 0x41, 0x64, 0x64, 0x00, 0x00, 0x00, 0x02, 0x00, 0x00, 0x00,
  0x01, 0x00, 0x00, 0x00, 0x03, 0x00, 0x00, 0x00, 0x12, 0xee, 0xff, 0xff,
  0x00, 0x00, 0x00, 0x09, 0x6c, 0x00, 0x00, 0x00, 0x1d, 0x00, 0x00, 0x00,
  0x44, 0x00, 0x00, 0x00, 0x04, 0x00, 0x00, 0x00, 0x04, 0xee, 0xff, 0xff,
  0x30, 0x00, 0x00, 0x00, 0x24, 0x00, 0x00, 0x00, 0x18, 0x00, 0x00, 0x00,
  0x04, 0x00, 0x00, 0x00, 0x01, 0x00, 0x00, 0x00, 0x80, 0xff, 0xff, 0xff,
  0xff, 0xff, 0xff, 0xff, 0x00, 0x00, 0x00, 0x00, 0x01, 0x00, 0x00, 0x00,
  0x16, 0x66, 0x69, 0x3d, 0x01, 0x00, 0x00, 0x00, 0xb0, 0x7c, 0x68, 0x41,
  0x01, 0x00, 0x00, 0x00, 0x00, 0x00, 0x00, 0x00, 0x1a, 0x00, 0x00, 0x00,
  0x73, 0x65, 0x71, 0x75, 0x65, 0x6e, 0x74, 0x69, 0x61, 0x6c, 0x2f, 0x66,
  0x6c, 0x61, 0x74, 0x74, 0x65, 0x6e, 0x2f, 0x52, 0x65, 0x73, 0x68, 0x61,
  0x70, 0x65, 0x00, 0x00, 0x02, 0x00, 0x00, 0x00, 0x01, 0x00, 0x00, 0x00,
  0x0a, 0x00, 0x00, 0x00, 0x92, 0xee, 0xff, 0xff, 0x00, 0x00, 0x00, 0x09,
  0x74, 0x00, 0x00, 0x00, 0x1c, 0x00, 0x00, 0x00, 0x44, 0x00, 0x00, 0x00,
  0x04, 0x00, 0x00, 0x00, 0x84, 0xee, 0xff, 0xff, 0x30, 0x00, 0x00, 0x00,
  0x24, 0x00, 0x00, 0x00, 0x18, 0x00, 0x00, 0x00, 0x04, 0x00, 0x00, 0x00,
  0x01, 0x00, 0x00, 0x00, 0x80, 0xff, 0xff, 0xff, 0xff, 0xff, 0xff, 0xff,
  0x00, 0x00, 0x00, 0x00, 0x01, 0x00, 0x00, 0x00, 0x16, 0x66, 0x69, 0x3d,
  0x01, 0x00, 0x00, 0x00, 0xb0, 0x7c, 0x68, 0x41, 0x01, 0x00, 0x00, 0x00,
  0x00, 0x00, 0x00, 0x00, 0x22, 0x00, 0x00, 0x00, 0x73, 0x65, 0x71, 0x75,
  0x65, 0x6e, 0x74, 0x69, 0x61, 0x6c, 0x2f, 0x6d, 0x61, 0x78, 0x5f, 0x70,
  0x6f, 0x6f, 0x6c, 0x69, 0x6e, 0x67, 0x31, 0x64, 0x5f, 0x31, 0x2f, 0x4d,
  0x61, 0x78, 0x50, 0x6f, 0x6f, 0x6c, 0x00, 0x00, 0x04, 0x00, 0x00, 0x00,
  0x01, 0x00, 0x00, 0x00, 0x01, 0x00, 0x00, 0x00, 0x01, 0x00, 0x00, 0x00,
  0x0a, 0x00, 0x00, 0x00, 0x22, 0xef, 0xff, 0xff, 0x00, 0x00, 0x00, 0x09,
  0x74, 0x00, 0x00, 0x00, 0x1b, 0x00, 0x00, 0x00, 0x40, 0x00, 0x00, 0x00,
  0x04, 0x00, 0x00, 0x00, 0x14, 0xef, 0xff, 0xff, 0x2c, 0x00, 0x00, 0x00,
  0x20, 0x00, 0x00, 0x00, 0x14, 0x00, 0x00, 0x00, 0x04, 0x00, 0x00, 0x00,
  0x01, 0x00, 0x00, 0x00, 0x80, 0xff, 0xff, 0xff, 0xff, 0xff, 0xff, 0xff,
  0x01, 0x00, 0x00, 0x00, 0x16, 0x66, 0x69, 0x3d, 0x01, 0x00, 0x00, 0x00,
  0xb0, 0x7c, 0x68, 0x41, 0x01, 0x00, 0x00, 0x00, 0x00, 0x00, 0x00, 0x00,
  0x26, 0x00, 0x00, 0x00, 0x73, 0x65, 0x71, 0x75, 0x65, 0x6e, 0x74, 0x69,
  0x61, 0x6c, 0x2f, 0x6d, 0x61, 0x78, 0x5f, 0x70, 0x6f, 0x6f, 0x6c, 0x69,
  0x6e, 0x67, 0x31, 0x64, 0x5f, 0x31, 0x2f, 0x45, 0x78, 0x70, 0x61, 0x6e,
  0x64, 0x44, 0x69, 0x6d, 0x73, 0x31, 0x00, 0x00, 0x04, 0x00, 0x00, 0x00,
  0x01, 0x00, 0x00, 0x00, 0x05, 0x00, 0x00, 0x00, 0x01, 0x00, 0x00, 0x00,
  0x0a, 0x00, 0x00, 0x00, 0xb2, 0xef, 0xff, 0xff, 0x00, 0x00, 0x00, 0x09,
  0x88, 0x00, 0x00, 0x00, 0x1a, 0x00, 0x00, 0x00, 0x44, 0x00, 0x00, 0x00,
  0x04, 0x00, 0x00, 0x00, 0xa4, 0xef, 0xff, 0xff, 0x30, 0x00, 0x00, 0x00,
  0x24, 0x00, 0x00, 0x00, 0x18, 0x00, 0x00, 0x00, 0x04, 0x00, 0x00, 0x00,
  0x01, 0x00, 0x00, 0x00, 0x80, 0xff, 0xff, 0xff, 0xff, 0xff, 0xff, 0xff,
  0x00, 0x00, 0x00, 0x00, 0x01, 0x00, 0x00, 0x00, 0x16, 0x66, 0x69, 0x3d,
  0x01, 0x00, 0x00, 0x00, 0xb0, 0x7c, 0x68, 0x41, 0x01, 0x00, 0x00, 0x00,
  0x00, 0x00, 0x00, 0x00, 0x34, 0x00, 0x00, 0x00, 0x73, 0x65, 0x71, 0x75,
  0x65, 0x6e, 0x74, 0x69, 0x61, 0x6c, 0x2f, 0x63, 0x6f, 0x6e, 0x76, 0x31,
  0x64, 0x5f, 0x31, 0x2f, 0x52, 0x65, 0x6c, 0x75, 0x3b, 0x73, 0x65, 0x71,
  0x75, 0x65, 0x6e, 0x74, 0x69, 0x61, 0x6c, 0x2f, 0x63, 0x6f, 0x6e, 0x76,
  0x31, 0x64, 0x5f, 0x31, 0x2f, 0x42, 0x69, 0x61, 0x73, 0x41, 0x64, 0x64,
  0x00, 0x00, 0x00, 0x00, 0x03, 0x00, 0x00, 0x00, 0x01, 0x00, 0x00, 0x00,
  0x05, 0x00, 0x00, 0x00, 0x0a, 0x00, 0x00, 0x00, 0x52, 0xf0, 0xff, 0xff,
  0x00, 0x00, 0x00, 0x09, 0x70, 0x00, 0x00, 0x00, 0x19, 0x00, 0x00, 0x00,
  0x40, 0x00, 0x00, 0x00, 0x04, 0x00, 0x00, 0x00, 0x44, 0xf0, 0xff, 0xff,
  0x2c, 0x00, 0x00, 0x00, 0x20, 0x00, 0x00, 0x00, 0x14, 0x00, 0x00, 0x00,
  0x04, 0x00, 0x00, 0x00, 0x01, 0x00, 0x00, 0x00, 0xec, 0xff, 0xff, 0xff,
  0xff, 0xff, 0xff, 0xff, 0x01, 0x00, 0x00, 0x00, 0x56, 0x2c, 0xc9, 0x3d,
  0x01, 0x00, 0x00, 0x00, 0x0b, 0xbd, 0x67, 0x41, 0x01, 0x00, 0x00, 0x00,
  0x49, 0x09, 0x29, 0xc1, 0x23, 0x00, 0x00, 0x00, 0x73, 0x65, 0x71, 0x75,
  0x65, 0x6e, 0x74, 0x69, 0x61, 0x6c, 0x2f, 0x63, 0x6f, 0x6e, 0x76, 0x31,
  0x64, 0x5f, 0x31, 0x2f, 0x63, 0x6f, 0x6e, 0x76, 0x31, 0x64, 0x2f, 0x53,
  0x71, 0x75, 0x65, 0x65, 0x7a, 0x65, 0x31, 0x00, 0x03, 0x00, 0x00, 0x00,
  0x01, 0x00, 0x00, 0x00, 0x05, 0x00, 0x00, 0x00, 0x0a, 0x00, 0x00, 0x00,
  0xda, 0xf0, 0xff, 0xff, 0x00, 0x00, 0x00, 0x09, 0x6c, 0x00, 0x00, 0x00,
  0x18, 0x00, 0x00, 0x00, 0x44, 0x00, 0x00, 0x00, 0x04, 0x00, 0x00, 0x00,
  0xcc, 0xf0, 0xff, 0xff, 0x30, 0x00, 0x00, 0x00, 0x24, 0x00, 0x00, 0x00,
  0x18, 0x00, 0x00, 0x00, 0x04, 0x00, 0x00, 0x00, 0x01, 0x00, 0x00, 0x00,
  0xec, 0xff, 0xff, 0xff, 0xff, 0xff, 0xff, 0xff, 0x00, 0x00, 0x00, 0x00,
  0x01, 0x00, 0x00, 0x00, 0x56, 0x2c, 0xc9, 0x3d, 0x01, 0x00, 0x00, 0x00,
  0x0b, 0xbd, 0x67, 0x41, 0x01, 0x00, 0x00, 0x00, 0x49, 0x09, 0x29, 0xc1,
  0x1b, 0x00, 0x00, 0x00, 0x73, 0x65, 0x71, 0x75, 0x65, 0x6e, 0x74, 0x69,
  0x61, 0x6c, 0x2f, 0x63, 0x6f, 0x6e, 0x76, 0x31, 0x64, 0x5f, 0x31, 0x2f,
  0x63, 0x6f, 0x6e, 0x76, 0x31, 0x64, 0x32, 0x00, 0x04, 0x00, 0x00, 0x00,
  0x01, 0x00, 0x00, 0x00, 0x01, 0x00, 0x00, 0x00, 0x05, 0x00, 0x00, 0x00,
  0x0a, 0x00, 0x00, 0x00, 0x62, 0xf1, 0xff, 0xff, 0x00, 0x00, 0x00, 0x09,
  0x74, 0x00, 0x00, 0x00, 0x17, 0x00, 0x00, 0x00, 0x40, 0x00, 0x00, 0x00,
  0x04, 0x00, 0x00, 0x00, 0x54, 0xf1, 0xff, 0xff, 0x2c, 0x00, 0x00, 0x00,
  0x20, 0x00, 0x00, 0x00, 0x14, 0x00, 0x00, 0x00, 0x04, 0x00, 0x00, 0x00,
  0x01, 0x00, 0x00, 0x00, 0x80, 0xff, 0xff, 0xff, 0xff, 0xff, 0xff, 0xff,
  0x01, 0x00, 0x00, 0x00, 0xcc, 0xa7, 0xcf, 0x3c, 0x01, 0x00, 0x00, 0x00,
  0x24, 0xd8, 0xce, 0x40, 0x01, 0x00, 0x00, 0x00, 0x00, 0x00, 0x00, 0x00,
  0x26, 0x00, 0x00, 0x00, 0x73, 0x65, 0x71, 0x75, 0x65, 0x6e, 0x74, 0x69,
  0x61, 0x6c, 0x2f, 0x63, 0x6f, 0x6e, 0x76, 0x31, 0x64, 0x5f, 0x31, 0x2f,
  0x63, 0x6f, 0x6e, 0x76, 0x31, 0x64, 0x2f, 0x45, 0x78, 0x70, 0x61, 0x6e,
  0x64, 0x44, 0x69, 0x6d, 0x73, 0x31, 0x00, 0x00, 0x04, 0x00, 0x00, 0x00,
  0x01, 0x00, 0x00, 0x00, 0x01, 0x00, 0x00, 0x00, 0x09, 0x00, 0x00, 0x00,
  0x1e, 0x00, 0x00, 0x00, 0xf2, 0xf1, 0xff, 0xff, 0x00, 0x00, 0x00, 0x09,
  0x74, 0x00, 0x00, 0x00, 0x16, 0x00, 0x00, 0x00, 0x44, 0x00, 0x00, 0x00,
  0x04, 0x00, 0x00, 0x00, 0xe4, 0xf1, 0xff, 0xff, 0x30, 0x00, 0x00, 0x00,
  0x24, 0x00, 0x00, 0x00, 0x18, 0x00, 0x00, 0x00, 0x04, 0x00, 0x00, 0x00,
  0x01, 0x00, 0x00, 0x00, 0x80, 0xff, 0xff, 0xff, 0xff, 0xff, 0xff, 0xff,
  0x00, 0x00, 0x00, 0x00, 0x01, 0x00, 0x00, 0x00, 0xcc, 0xa7, 0xcf, 0x3c,
  0x01, 0x00, 0x00, 0x00, 0x24, 0xd8, 0xce, 0x40, 0x01, 0x00, 0x00, 0x00,
  0x00, 0x00, 0x00, 0x00, 0x20, 0x00, 0x00, 0x00, 0x73, 0x65, 0x71, 0x75,
  0x65, 0x6e, 0x74, 0x69, 0x61, 0x6c, 0x2f, 0x6d, 0x61, 0x78, 0x5f, 0x70,
  0x6f, 0x6f, 0x6c, 0x69, 0x6e, 0x67, 0x31, 0x64, 0x2f, 0x4d, 0x61, 0x78,
  0x50, 0x6f, 0x6f, 0x6c, 0x00, 0x00, 0x00, 0x00, 0x04, 0x00, 0x00, 0x00,
  0x01, 0x00, 0x00, 0x00, 0x09, 0x00, 0x00, 0x00, 0x01, 0x00, 0x00, 0x00,
  0x1e, 0x00, 0x00, 0x00, 0x82, 0xf2, 0xff, 0xff, 0x00, 0x00, 0x00, 0x09,
  0x74, 0x00, 0x00, 0x00, 0x15, 0x00, 0x00, 0x00, 0x40, 0x00, 0x00, 0x00,
  0x04, 0x00, 0x00, 0x00, 0x74, 0xf2, 0xff, 0xff, 0x2c, 0x00, 0x00, 0x00,
  0x20, 0x00, 0x00, 0x00, 0x14, 0x00, 0x00, 0x00, 0x04, 0x00, 0x00, 0x00,
  0x01, 0x00, 0x00, 0x00, 0x80, 0xff, 0xff, 0xff, 0xff, 0xff, 0xff, 0xff,
  0x01, 0x00, 0x00, 0x00, 0xcc, 0xa7, 0xcf, 0x3c, 0x01, 0x00, 0x00, 0x00,
  0x24, 0xd8, 0xce, 0x40, 0x01, 0x00, 0x00, 0x00, 0x00, 0x00, 0x00, 0x00,
  0x24, 0x00, 0x00, 0x00, 0x73, 0x65, 0x71, 0x75, 0x65, 0x6e, 0x74, 0x69,
  0x61, 0x6c, 0x2f, 0x6d, 0x61, 0x78, 0x5f, 0x70, 0x6f, 0x6f, 0x6c, 0x69,
  0x6e, 0x67, 0x31, 0x64, 0x2f, 0x45, 0x78, 0x70, 0x61, 0x6e, 0x64, 0x44,
  0x69, 0x6d, 0x73, 0x31, 0x00, 0x00, 0x00, 0x00, 0x04, 0x00, 0x00, 0x00,
  0x01, 0x00, 0x00, 0x00, 0x2d, 0x00, 0x00, 0x00, 0x01, 0x00, 0x00, 0x00,
  0x1e, 0x00, 0x00, 0x00, 0x12, 0xf3, 0xff, 0xff, 0x00, 0x00, 0x00, 0x09,
  0x80, 0x00, 0x00, 0x00, 0x14, 0x00, 0x00, 0x00, 0x40, 0x00, 0x00, 0x00,
  0x04, 0x00, 0x00, 0x00, 0x04, 0xf3, 0xff, 0xff, 0x2c, 0x00, 0x00, 0x00,
  0x20, 0x00, 0x00, 0x00, 0x14, 0x00, 0x00, 0x00, 0x04, 0x00, 0x00, 0x00,
  0x01, 0x00, 0x00, 0x00, 0x80, 0xff, 0xff, 0xff, 0xff, 0xff, 0xff, 0xff,
  0x01, 0x00, 0x00, 0x00, 0xcc, 0xa7, 0xcf, 0x3c, 0x01, 0x00, 0x00, 0x00,
  0x24, 0xd8, 0xce, 0x40, 0x01, 0x00, 0x00, 0x00, 0x00, 0x00, 0x00, 0x00,
  0x30, 0x00, 0x00, 0x00, 0x73, 0x65, 0x71, 0x75, 0x65, 0x6e, 0x74, 0x69,
  0x61, 0x6c, 0x2f, 0x63, 0x6f, 0x6e, 0x76, 0x31, 0x64, 0x2f, 0x52, 0x65,
  0x6c, 0x75, 0x3b, 0x73, 0x65, 0x71, 0x75, 0x65, 0x6e, 0x74, 0x69, 0x61,
  0x6c, 0x2f, 0x63, 0x6f, 0x6e, 0x76, 0x31, 0x64, 0x2f, 0x42, 0x69, 0x61,
  0x73, 0x41, 0x64, 0x64, 0x00, 0x00, 0x00, 0x00, 0x03, 0x00, 0x00, 0x00,
  0x01, 0x00, 0x00, 0x00, 0x2d, 0x00, 0x00, 0x00, 0x1e, 0x00, 0x00, 0x00,
  0xaa, 0xf3, 0xff, 0xff, 0x00, 0x00, 0x00, 0x09, 0x70, 0x00, 0x00, 0x00,
  0x13, 0x00, 0x00, 0x00, 0x40, 0x00, 0x00, 0x00, 0x04, 0x00, 0x00, 0x00,
  0x9c, 0xf3, 0xff, 0xff, 0x2c, 0x00, 0x00, 0x00, 0x20, 0x00, 0x00, 0x00,
  0x14, 0x00, 0x00, 0x00, 0x04, 0x00, 0x00, 0x00, 0x01, 0x00, 0x00, 0x00,
  0xf9, 0xff, 0xff, 0xff, 0xff, 0xff, 0xff, 0xff, 0x01, 0x00, 0x00, 0x00,
  0xf1, 0x34, 0x46, 0x3d, 0x01, 0x00, 0x00, 0x00, 0x04, 0x7b, 0xcf, 0x40,
  0x01, 0x00, 0x00, 0x00, 0x75, 0x62, 0xbb, 0xc0, 0x21, 0x00, 0x00, 0x00,
  0x73, 0x65, 0x71, 0x75, 0x65, 0x6e, 0x74, 0x69, 0x61, 0x6c, 0x2f, 0x63,
  0x6f, 0x6e, 0x76, 0x31, 0x64, 0x2f, 0x63, 0x6f, 0x6e, 0x76, 0x31, 0x64,
  0x2f, 0x53, 0x71, 0x75, 0x65, 0x65, 0x7a, 0x65, 0x31, 0x00, 0x00, 0x00,
  0x03, 0x00, 0x00, 0x00, 0x01, 0x00, 0x00, 0x00, 0x2d, 0x00, 0x00, 0x00,
  0x1e, 0x00, 0x00, 0x00, 0x32, 0xf4, 0xff, 0xff, 0x00, 0x00, 0x00, 0x09,
  0x6c, 0x00, 0x00, 0x00, 0x12, 0x00, 0x00, 0x00, 0x44, 0x00, 0x00, 0x00,
  0x04, 0x00, 0x00, 0x00, 0x24, 0xf4, 0xff, 0xff, 0x30, 0x00, 0x00, 0x00,
  0x24, 0x00, 0x00, 0x00, 0x18, 0x00, 0x00, 0x00, 0x04, 0x00, 0x00, 0x00,
  0x01, 0x00, 0x00, 0x00, 0xf9, 0xff, 0xff, 0xff, 0xff, 0xff, 0xff, 0xff,
  0x00, 0x00, 0x00, 0x00, 0x01, 0x00, 0x00, 0x00, 0xf1, 0x34, 0x46, 0x3d,
  0x01, 0x00, 0x00, 0x00, 0x04, 0x7b, 0xcf, 0x40, 0x01, 0x00, 0x00, 0x00,
  0x75, 0x62, 0xbb, 0xc0, 0x19, 0x00, 0x00, 0x00, 0x73, 0x65, 0x71, 0x75,
  0x65, 0x6e, 0x74, 0x69, 0x61, 0x6c, 0x2f, 0x63, 0x6f, 0x6e, 0x76, 0x31,
  0x64, 0x2f, 0x63, 0x6f, 0x6e, 0x76, 0x31, 0x64, 0x32, 0x00, 0x00, 0x00,
  0x04, 0x00, 0x00, 0x00, 0x01, 0x00, 0x00, 0x00, 0x01, 0x00, 0x00, 0x00,
  0x2d, 0x00, 0x00, 0x00, 0x1e, 0x00, 0x00, 0x00, 0xba, 0xf4, 0xff, 0xff,
  0x00, 0x00, 0x00, 0x09, 0x74, 0x00, 0x00, 0x00, 0x11, 0x00, 0x00, 0x00,
  0x40, 0x00, 0x00, 0x00, 0x04, 0x00, 0x00, 0x00, 0xac, 0xf4, 0xff, 0xff,
  0x2c, 0x00, 0x00, 0x00, 0x20, 0x00, 0x00, 0x00, 0x14, 0x00, 0x00, 0x00,
  0x04, 0x00, 0x00, 0x00, 0x01, 0x00, 0x00, 0x00, 0xe9, 0xff, 0xff, 0xff,
  0xff, 0xff, 0xff, 0xff, 0x01, 0x00, 0x00, 0x00, 0xbe, 0xe5, 0x33, 0x3d,
  0x01, 0x00, 0x00, 0x00, 0xd0, 0x24, 0xd2, 0x40, 0x01, 0x00, 0x00, 0x00,
  0xdf, 0x3e, 0x94, 0xc0, 0x24, 0x00, 0x00, 0x00, 0x73, 0x65, 0x71, 0x75,
  0x65, 0x6e, 0x74, 0x69, 0x61, 0x6c, 0x2f, 0x63, 0x6f, 0x6e, 0x76, 0x31,
  0x64, 0x2f, 0x63, 0x6f, 0x6e, 0x76, 0x31, 0x64, 0x2f, 0x45, 0x78, 0x70,
  0x61, 0x6e, 0x64, 0x44, 0x69, 0x6d, 0x73, 0x31, 0x00, 0x00, 0x00, 0x00,
  0x04, 0x00, 0x00, 0x00, 0x01, 0x00, 0x00, 0x00, 0x01, 0x00, 0x00, 0x00,
  0x31, 0x00, 0x00, 0x00, 0x0d, 0x00, 0x00, 0x00, 0x4a, 0xf5, 0xff, 0xff,
  0x00, 0x00, 0x00, 0x02, 0x40, 0x00, 0x00, 0x00, 0x10, 0x00, 0x00, 0x00,
  0x0c, 0x00, 0x00, 0x00, 0x04, 0x00, 0x00, 0x00, 0xa8, 0xf6, 0xff, 0xff,
  0x25, 0x00, 0x00, 0x00, 0x73, 0x65, 0x71, 0x75, 0x65, 0x6e, 0x74, 0x69,
  0x61, 0x6c, 0x2f, 0x6d, 0x61, 0x78, 0x5f, 0x70, 0x6f, 0x6f, 0x6c, 0x69,
  0x6e, 0x67, 0x31, 0x64, 0x5f, 0x31, 0x2f, 0x45, 0x78, 0x70, 0x61, 0x6e,
  0x64, 0x44, 0x69, 0x6d, 0x73, 0x00, 0x00, 0x00, 0x01, 0x00, 0x00, 0x00,
  0x04, 0x00, 0x00, 0x00, 0x9a, 0xf5, 0xff, 0xff, 0x00, 0x00, 0x00, 0x02,
  0x3c, 0x00, 0x00, 0x00, 0x0f, 0x00, 0x00, 0x00, 0x0c, 0x00, 0x00, 0x00,
  0x04, 0x00, 0x00, 0x00, 0xf8, 0xf6, 0xff, 0xff, 0x22, 0x00, 0x00, 0x00,
  0x73, 0x65, 0x71, 0x75, 0x65, 0x6e, 0x74, 0x69, 0x61, 0x6c, 0x2f, 0x63,
  0x6f, 0x6e, 0x76, 0x31, 0x64, 0x5f, 0x31, 0x2f, 0x63, 0x6f, 0x6e, 0x76,
  0x31, 0x64, 0x2f, 0x53, 0x71, 0x75, 0x65, 0x65, 0x7a, 0x65, 0x00, 0x00,
  0x01, 0x00, 0x00, 0x00, 0x03, 0x00, 0x00, 0x00, 0xe6, 0xf5, 0xff, 0xff,
  0x00, 0x00, 0x00, 0x02, 0x40, 0x00, 0x00, 0x00, 0x0e, 0x00, 0x00, 0x00,
  0x0c, 0x00, 0x00, 0x00, 0x04, 0x00, 0x00, 0x00, 0x44, 0xf7, 0xff, 0xff,
  0x25, 0x00, 0x00, 0x00, 0x73, 0x65, 0x71, 0x75, 0x65, 0x6e, 0x74, 0x69,
  0x61, 0x6c, 0x2f, 0x63, 0x6f, 0x6e, 0x76, 0x31, 0x64, 0x5f, 0x31, 0x2f,
  0x63, 0x6f, 0x6e, 0x76, 0x31, 0x64, 0x2f, 0x45, 0x78, 0x70, 0x61, 0x6e,
  0x64, 0x44, 0x69, 0x6d, 0x73, 0x00, 0x00, 0x00, 0x01, 0x00, 0x00, 0x00,
  0x04, 0x00, 0x00, 0x00, 0x36, 0xf6, 0xff, 0xff, 0x00, 0x00, 0x00, 0x02,
  0x3c, 0x00, 0x00, 0x00, 0x0d, 0x00, 0x00, 0x00, 0x0c, 0x00, 0x00, 0x00,
  0x04, 0x00, 0x00, 0x00, 0x94, 0xf7, 0xff, 0xff, 0x23, 0x00, 0x00, 0x00,
  0x73, 0x65, 0x71, 0x75, 0x65, 0x6e, 0x74, 0x69, 0x61, 0x6c, 0x2f, 0x6d,
  0x61, 0x78, 0x5f, 0x70, 0x6f, 0x6f, 0x6c, 0x69, 0x6e, 0x67, 0x31, 0x64,
  0x2f, 0x45, 0x78, 0x70, 0x61, 0x6e, 0x64, 0x44, 0x69, 0x6d, 0x73, 0x00,
  0x01, 0x00, 0x00, 0x00, 0x04, 0x00, 0x00, 0x00, 0x82, 0xf6, 0xff, 0xff,
  0x00, 0x00, 0x00, 0x02, 0x3c, 0x00, 0x00, 0x00, 0x0c, 0x00, 0x00, 0x00,
  0x0c, 0x00, 0x00, 0x00, 0x04, 0x00, 0x00, 0x00, 0xe0, 0xf7, 0xff, 0xff,
  0x20, 0x00, 0x00, 0x00, 0x73, 0x65, 0x71, 0x75, 0x65, 0x6e, 0x74, 0x69,
  0x61, 0x6c, 0x2f, 0x63, 0x6f, 0x6e, 0x76, 0x31, 0x64, 0x2f, 0x63, 0x6f,
  0x6e, 0x76, 0x31, 0x64, 0x2f, 0x53, 0x71, 0x75, 0x65, 0x65, 0x7a, 0x65,
  0x00, 0x00, 0x00, 0x00, 0x01, 0x00, 0x00, 0x00, 0x03, 0x00, 0x00, 0x00,
  0xce, 0xf6, 0xff, 0xff, 0x00, 0x00, 0x00, 0x02, 0x3c, 0x00, 0x00, 0x00,
  0x0b, 0x00, 0x00, 0x00, 0x0c, 0x00, 0x00, 0x00, 0x04, 0x00, 0x00, 0x00,
  0x2c, 0xf8, 0xff, 0xff, 0x23, 0x00, 0x00, 0x00, 0x73, 0x65, 0x71, 0x75,
  0x65, 0x6e, 0x74, 0x69, 0x61, 0x6c, 0x2f, 0x63, 0x6f, 0x6e, 0x76, 0x31,
  0x64, 0x2f, 0x63, 0x6f, 0x6e, 0x76, 0x31, 0x64, 0x2f, 0x45, 0x78, 0x70,
  0x61, 0x6e, 0x64, 0x44, 0x69, 0x6d, 0x73, 0x00, 0x01, 0x00, 0x00, 0x00,
  0x04, 0x00, 0x00, 0x00, 0x1a, 0xf7, 0xff, 0xff, 0x00, 0x00, 0x00, 0x09,
  0x1c, 0x01, 0x00, 0x00, 0x0a, 0x00, 0x00, 0x00, 0xf4, 0x00, 0x00, 0x00,
  0x04, 0x00, 0x00, 0x00, 0x0c, 0xf7, 0xff, 0xff, 0xbc, 0x00, 0x00, 0x00,
  0x8c, 0x00, 0x00, 0x00, 0x5c, 0x00, 0x00, 0x00, 0x04, 0x00, 0x00, 0x00,
  0x0a, 0x00, 0x00, 0x00, 0x00, 0x00, 0x00, 0x00, 0x00, 0x00, 0x00, 0x00,
  0x00, 0x00, 0x00, 0x00, 0x00, 0x00, 0x00, 0x00, 0x00, 0x00, 0x00, 0x00,
  0x00, 0x00, 0x00, 0x00, 0x00, 0x00, 0x00, 0x00, 0x00, 0x00, 0x00, 0x00,
  0x00, 0x00, 0x00, 0x00, 0x00, 0x00, 0x00, 0x00, 0x00, 0x00, 0x00, 0x00,
  0x00, 0x00, 0x00, 0x00, 0x00, 0x00, 0x00, 0x00, 0x00, 0x00, 0x00, 0x00,
  0x00, 0x00, 0x00, 0x00, 0x00, 0x00, 0x00, 0x00, 0x00, 0x00, 0x00, 0x00,
  0x00, 0x00, 0x00, 0x00, 0x00, 0x00, 0x00, 0x00, 0x00, 0x00, 0x00, 0x00,
  0x0a, 0x00, 0x00, 0x00, 0x22, 0x80, 0xd9, 0x3a, 0x58, 0x10, 0xd2, 0x3a,
  0x3e, 0x2c, 0xe9, 0x3a, 0x45, 0xc4, 0xf5, 0x3a, 0x0a, 0xee, 0x30, 0x3b,
  0xd9, 0x3d, 0x12, 0x3b, 0xf7, 0xe5, 0x17, 0x3b, 0xc2, 0x1f, 0xe5, 0x3a,
  0xcc, 0x6e, 0xc5, 0x3a, 0xe7, 0xc3, 0xba, 0x3a, 0x0a, 0x00, 0x00, 0x00,
  0x22, 0xcd, 0x57, 0x3e, 0x37, 0x6c, 0x50, 0x3e, 0xe6, 0x59, 0x67, 0x3e,
  0xbc, 0xd8, 0x73, 0x3e, 0x0b, 0xab, 0xa3, 0x3e, 0x5d, 0x19, 0x91, 0x3e,
  0x2b, 0xb6, 0x96, 0x3e, 0x82, 0x55, 0x63, 0x3e, 0xb8, 0xef, 0x1f, 0x3e,
  0x07, 0xc3, 0x1f, 0x3e, 0x0a, 0x00, 0x00, 0x00, 0x1c, 0xb8, 0x44, 0xbe,
  0xbb, 0x4e, 0x37, 0xbe, 0x95, 0xbf, 0x66, 0xbe, 0x1e, 0x25, 0x71, 0xbe,
  0x2e, 0x8c, 0xaf, 0xbe, 0xf3, 0xf1, 0x8f, 0xbe, 0xe7, 0x19, 0x96, 0xbe,
  0xd5, 0x7f, 0x53, 0xbe, 0xee, 0xe3, 0x43, 0xbe, 0x5f, 0x4e, 0x39, 0xbe,
  0x1b, 0x00, 0x00, 0x00, 0x73, 0x65, 0x71, 0x75, 0x65, 0x6e, 0x74, 0x69,
  0x61, 0x6c, 0x2f, 0x63, 0x6f, 0x6e, 0x76, 0x31, 0x64, 0x5f, 0x31, 0x2f,
  0x63, 0x6f, 0x6e, 0x76, 0x31, 0x64, 0x31, 0x00, 0x04, 0x00, 0x00, 0x00,
  0x0a, 0x00, 0x00, 0x00, 0x01, 0x00, 0x00, 0x00, 0x05, 0x00, 0x00, 0x00,
  0x1e, 0x00, 0x00, 0x00, 0x52, 0xf8, 0xff, 0xff, 0x00, 0x00, 0x00, 0x02,
  0xc0, 0x00, 0x00, 0x00, 0x09, 0x00, 0x00, 0x00, 0x98, 0x00, 0x00, 0x00,
  0x04, 0x00, 0x00, 0x00, 0x2c, 0xfa, 0xff, 0xff, 0x60, 0x00, 0x00, 0x00,
  0x04, 0x00, 0x00, 0x00, 0x0a, 0x00, 0x00, 0x00, 0x00, 0x00, 0x00, 0x00,
  0x00, 0x00, 0x00, 0x00, 0x00, 0x00, 0x00, 0x00, 0x00, 0x00, 0x00, 0x00,
  0x00, 0x00, 0x00, 0x00, 0x00, 0x00, 0x00, 0x00, 0x00, 0x00, 0x00, 0x00,
  0x00, 0x00, 0x00, 0x00, 0x00, 0x00, 0x00, 0x00, 0x00, 0x00, 0x00, 0x00,
  0x00, 0x00, 0x00, 0x00, 0x00, 0x00, 0x00, 0x00, 0x00, 0x00, 0x00, 0x00,
  0x00, 0x00, 0x00, 0x00, 0x00, 0x00, 0x00, 0x00, 0x00, 0x00, 0x00, 0x00,
  0x00, 0x00, 0x00, 0x00, 0x00, 0x00, 0x00, 0x00, 0x00, 0x00, 0x00, 0x00,
  0x00, 0x00, 0x00, 0x00, 0x00, 0x00, 0x00, 0x00, 0x0a, 0x00, 0x00, 0x00,
  0x2b, 0x6d, 0x30, 0x38, 0xe7, 0x64, 0x2a, 0x38, 0x9c, 0x23, 0x3d, 0x38,
  0xcb, 0x5a, 0x47, 0x38, 0x72, 0x84, 0x8f, 0x38, 0xbb, 0x3f, 0x6d, 0x38,
  0x06, 0x6d, 0x76, 0x38, 0xdc, 0xda, 0x39, 0x38, 0x00, 0x26, 0x20, 0x38,
  0xd2, 0x7e, 0x17, 0x38, 0x1a, 0x00, 0x00, 0x00, 0x73, 0x65, 0x71, 0x75,
  0x65, 0x6e, 0x74, 0x69, 0x61, 0x6c, 0x2f, 0x63, 0x6f, 0x6e, 0x76, 0x31,
  0x64, 0x5f, 0x31, 0x2f, 0x63, 0x6f, 0x6e, 0x76, 0x31, 0x64, 0x00, 0x00,
  0x01, 0x00, 0x00, 0x00, 0x0a, 0x00, 0x00, 0x00, 0x22, 0xf9, 0xff, 0xff,
  0x00, 0x00, 0x00, 0x09, 0xac, 0x02, 0x00, 0x00, 0x08, 0x00, 0x00, 0x00,
  0x84, 0x02, 0x00, 0x00, 0x04, 0x00, 0x00, 0x00, 0x14, 0xf9, 0xff, 0xff,
  0xfc, 0x01, 0x00, 0x00, 0x7c, 0x01, 0x00, 0x00, 0xfc, 0x00, 0x00, 0x00,
  0x04, 0x00, 0x00, 0x00, 0x1e, 0x00, 0x00, 0x00, 0x00, 0x00, 0x00, 0x00,
  0x00, 0x00, 0x00, 0x00, 0x00, 0x00, 0x00, 0x00, 0x00, 0x00, 0x00, 0x00,
  0x00, 0x00, 0x00, 0x00, 0x00, 0x00, 0x00, 0x00, 0x00, 0x00, 0x00, 0x00,
  0x00, 0x00, 0x00, 0x00, 0x00, 0x00, 0x00, 0x00, 0x00, 0x00, 0x00, 0x00,
  0x00, 0x00, 0x00, 0x00, 0x00, 0x00, 0x00, 0x00, 0x00, 0x00, 0x00, 0x00,
  0x00, 0x00, 0x00, 0x00, 0x00, 0x00, 0x00, 0x00, 0x00, 0x00, 0x00, 0x00,
  0x00, 0x00, 0x00, 0x00, 0x00, 0x00, 0x00, 0x00, 0x00, 0x00, 0x00, 0x00,
  0x00, 0x00, 0x00, 0x00, 0x00, 0x00, 0x00, 0x00, 0x00, 0x00, 0x00, 0x00,
  0x00, 0x00, 0x00, 0x00, 0x00, 0x00, 0x00, 0x00, 0x00, 0x00, 0x00, 0x00,
  0x00, 0x00, 0x00, 0x00, 0x00, 0x00, 0x00, 0x00, 0x00, 0x00, 0x00, 0x00,
  0x00, 0x00, 0x00, 0x00, 0x00, 0x00, 0x00, 0x00, 0x00, 0x00, 0x00, 0x00,
  0x00, 0x00, 0x00, 0x00, 0x00, 0x00, 0x00, 0x00, 0x00, 0x00, 0x00, 0x00,
  0x00, 0x00, 0x00, 0x00, 0x00, 0x00, 0x00, 0x00, 0x00, 0x00, 0x00, 0x00,
  0x00, 0x00, 0x00, 0x00, 0x00, 0x00, 0x00, 0x00, 0x00, 0x00, 0x00, 0x00,
  0x00, 0x00, 0x00, 0x00, 0x00, 0x00, 0x00, 0x00, 0x00, 0x00, 0x00, 0x00,
  0x00, 0x00, 0x00, 0x00, 0x00, 0x00, 0x00, 0x00, 0x00, 0x00, 0x00, 0x00,
  0x00, 0x00, 0x00, 0x00, 0x00, 0x00, 0x00, 0x00, 0x00, 0x00, 0x00, 0x00,
  0x00, 0x00, 0x00, 0x00, 0x00, 0x00, 0x00, 0x00, 0x00, 0x00, 0x00, 0x00,
  0x00, 0x00, 0x00, 0x00, 0x00, 0x00, 0x00, 0x00, 0x00, 0x00, 0x00, 0x00,
  0x00, 0x00, 0x00, 0x00, 0x00, 0x00, 0x00, 0x00, 0x00, 0x00, 0x00, 0x00,
  0x00, 0x00, 0x00, 0x00, 0x00, 0x00, 0x00, 0x00, 0x1e, 0x00, 0x00, 0x00,
  0xf7, 0x11, 0x0e, 0x3b, 0xe4, 0x86, 0xc9, 0x3a, 0x8b, 0x43, 0x01, 0x3b,
  0x6c, 0x6b, 0x10, 0x3b, 0xa8, 0x77, 0x0b, 0x3b, 0x81, 0x16, 0xf4, 0x3a,
  0x9a, 0xd4, 0xef, 0x3a, 0xea, 0x37, 0xef, 0x3a, 0x42, 0xc7, 0x08, 0x3b,
  0x6f, 0x7b, 0x08, 0x3b, 0x84, 0x89, 0x19, 0x3b, 0xc7, 0xd0, 0xc8, 0x3a,
  0xa6, 0xe0, 0x12, 0x3b, 0xa0, 0x8e, 0x09, 0x3b, 0x27, 0x54, 0x00, 0x3b,
  0x79, 0x27, 0xde, 0x3a, 0x1d, 0x28, 0xfd, 0x3a, 0xb1, 0x92, 0xfd, 0x3a,
  0x81, 0x3c, 0xe1, 0x3a, 0x51, 0x26, 0xfb, 0x3a, 0x7c, 0xc3, 0xf1, 0x3a,
  0x10, 0x30, 0xe2, 0x3a, 0xd4, 0xfd, 0xc4, 0x3a, 0x1b, 0x86, 0xe9, 0x3a,
  0x3a, 0x49, 0xc8, 0x3a, 0x0f, 0xa6, 0xe8, 0x3a, 0xa2, 0x9e, 0x1a, 0x3b,
  0x39, 0x40, 0x14, 0x3b, 0x2a, 0x71, 0x04, 0x3b, 0x80, 0x3d, 0xf2, 0x3a,
  0x1e, 0x00, 0x00, 0x00, 0xd7, 0xec, 0x44, 0x3e, 0xd6, 0xf3, 0x47, 0x3e,
  0x04, 0x41, 0x80, 0x3e, 0x94, 0x12, 0x4f, 0x3e, 0x2d, 0x93, 0x82, 0x3e,
  0x54, 0x2e, 0x72, 0x3e, 0xf1, 0xf4, 0x6d, 0x3e, 0xa2, 0x48, 0x2f, 0x3e,
  0x54, 0x26, 0x80, 0x3e, 0x78, 0x6a, 0x87, 0x3e, 0x53, 0x71, 0x81, 0x3e,
  0x25, 0x3f, 0x47, 0x3e, 0xe5, 0xba, 0x91, 0x3e, 0x4d, 0x94, 0x35, 0x3e,
  0xae, 0x40, 0x39, 0x3e, 0x2c, 0x40, 0x4d, 0x3e, 0x21, 0x0e, 0x6b, 0x3e,
  0x8c, 0x97, 0x7b, 0x3e, 0x08, 0x7a, 0x5f, 0x3e, 0x04, 0x30, 0x79, 0x3e,
  0xf5, 0xdf, 0x6f, 0x3e, 0x02, 0x9a, 0x43, 0x3e, 0xd9, 0xd5, 0x39, 0x3e,
  0x0f, 0xb3, 0x67, 0x3e, 0xa8, 0xb8, 0x46, 0x3e, 0x40, 0xcb, 0x3e, 0x3e,
  0x65, 0x69, 0x99, 0x3e, 0x08, 0x99, 0x8e, 0x3e, 0x48, 0x68, 0x83, 0x3e,
  0xe7, 0x22, 0x48, 0x3e, 0x1e, 0x00, 0x00, 0x00, 0xd3, 0xf5, 0x8c, 0xbe,
  0xde, 0xcb, 0x37, 0xbe, 0x2a, 0x15, 0x4b, 0xbe, 0x95, 0x4a, 0x8f, 0xbe,
  0xb9, 0x60, 0x8a, 0xbe, 0x35, 0xa9, 0x52, 0xbe, 0x9e, 0xaa, 0x4b, 0xbe,
  0x7a, 0x59, 0x6d, 0xbe, 0xb3, 0xb5, 0x87, 0xbe, 0x43, 0xe6, 0x78, 0xbe,
  0x71, 0x56, 0x98, 0xbe, 0xba, 0x29, 0x47, 0xbe, 0x77, 0x9a, 0x81, 0xbe,
  0x83, 0x7b, 0x88, 0xbe, 0xfe, 0xa6, 0x7e, 0xbe, 0x2a, 0x6b, 0x5c, 0xbe,
  0xcd, 0x2d, 0x7b, 0xbe, 0xf2, 0x89, 0x79, 0xbe, 0x61, 0xa7, 0x38, 0xbe,
  0xf8, 0xf3, 0x4c, 0xbe, 0x2b, 0x2f, 0x6f, 0xbe, 0xb0, 0x6b, 0x60, 0xbe,
  0xd8, 0x73, 0x43, 0xbe, 0xa2, 0x4c, 0x45, 0xbe, 0x31, 0x46, 0x3f, 0xbe,
  0xc3, 0xd4, 0x66, 0xbe, 0x3f, 0xe4, 0x30, 0xbe, 0xb9, 0x17, 0x93, 0xbe,
  0x7e, 0xf8, 0x4f, 0xbe, 0x05, 0x59, 0x70, 0xbe, 0x19, 0x00, 0x00, 0x00,
  0x73, 0x65, 0x71, 0x75, 0x65, 0x6e, 0x74, 0x69, 0x61, 0x6c, 0x2f, 0x63,
  0x6f, 0x6e, 0x76, 0x31, 0x64, 0x2f, 0x63, 0x6f, 0x6e, 0x76, 0x31, 0x64,
  0x31, 0x00, 0x00, 0x00, 0x04, 0x00, 0x00, 0x00, 0x1e, 0x00, 0x00, 0x00,
  0x01, 0x00, 0x00, 0x00, 0x05, 0x00, 0x00, 0x00, 0x0d, 0x00, 0x00, 0x00,
  0xea, 0xfb, 0xff, 0xff, 0x00, 0x00, 0x00, 0x02, 0xb0, 0x01, 0x00, 0x00,
  0x07, 0x00, 0x00, 0x00, 0x88, 0x01, 0x00, 0x00, 0x04, 0x00, 0x00, 0x00,
  0xc4, 0xfd, 0xff, 0xff, 0x00, 0x01, 0x00, 0x00, 0x04, 0x00, 0x00, 0x00,
  0x1e, 0x00, 0x00, 0x00, 0x00, 0x00, 0x00, 0x00, 0x00, 0x00, 0x00, 0x00,
  0x00, 0x00, 0x00, 0x00, 0x00, 0x00, 0x00, 0x00, 0x00, 0x00, 0x00, 0x00,
  0x00, 0x00, 0x00, 0x00, 0x00, 0x00, 0x00, 0x00, 0x00, 0x00, 0x00, 0x00,
  0x00, 0x00, 0x00, 0x00, 0x00, 0x00, 0x00, 0x00, 0x00, 0x00, 0x00, 0x00,
  0x00, 0x00, 0x00, 0x00, 0x00, 0x00, 0x00, 0x00, 0x00, 0x00, 0x00, 0x00,
  0x00, 0x00, 0x00, 0x00, 0x00, 0x00, 0x00, 0x00, 0x00, 0x00, 0x00, 0x00,
  0x00, 0x00, 0x00, 0x00, 0x00, 0x00, 0x00, 0x00, 0x00, 0x00, 0x00, 0x00,
  0x00, 0x00, 0x00, 0x00, 0x00, 0x00, 0x00, 0x00, 0x00, 0x00, 0x00, 0x00,
  0x00, 0x00, 0x00, 0x00, 0x00, 0x00, 0x00, 0x00, 0x00, 0x00, 0x00, 0x00,
  0x00, 0x00, 0x00, 0x00, 0x00, 0x00, 0x00, 0x00, 0x00, 0x00, 0x00, 0x00,
  0x00, 0x00, 0x00, 0x00, 0x00, 0x00, 0x00, 0x00, 0x00, 0x00, 0x00, 0x00,
  0x00, 0x00, 0x00, 0x00, 0x00, 0x00, 0x00, 0x00, 0x00, 0x00, 0x00, 0x00,
  0x00, 0x00, 0x00, 0x00, 0x00, 0x00, 0x00, 0x00, 0x00, 0x00, 0x00, 0x00,
  0x00, 0x00, 0x00, 0x00, 0x00, 0x00, 0x00, 0x00, 0x00, 0x00, 0x00, 0x00,
  0x00, 0x00, 0x00, 0x00, 0x00, 0x00, 0x00, 0x00, 0x00, 0x00, 0x00, 0x00,
  0x00, 0x00, 0x00, 0x00, 0x00, 0x00, 0x00, 0x00, 0x00, 0x00, 0x00, 0x00,
  0x00, 0x00, 0x00, 0x00, 0x00, 0x00, 0x00, 0x00, 0x00, 0x00, 0x00, 0x00,
  0x00, 0x00, 0x00, 0x00, 0x00, 0x00, 0x00, 0x00, 0x00, 0x00, 0x00, 0x00,
  0x00, 0x00, 0x00, 0x00, 0x00, 0x00, 0x00, 0x00, 0x00, 0x00, 0x00, 0x00,
  0x00, 0x00, 0x00, 0x00, 0x00, 0x00, 0x00, 0x00, 0x00, 0x00, 0x00, 0x00,
  0x00, 0x00, 0x00, 0x00, 0x00, 0x00, 0x00, 0x00, 0x1e, 0x00, 0x00, 0x00,
  0x1e, 0xac, 0xc7, 0x38, 0x2d, 0x9e, 0x8d, 0x38, 0x77, 0xac, 0xb5, 0x38,
  0x70, 0xf9, 0xca, 0x38, 0xa8, 0x03, 0xc4, 0x38, 0xc9, 0x86, 0xab, 0x38,
  0xe3, 0x88, 0xa8, 0x38, 0xc7, 0x1a, 0xa8, 0x38, 0x26, 0x3c, 0xc0, 0x38,
  0x95, 0xd1, 0xbf, 0x38, 0xe3, 0xc9, 0xd7, 0x38, 0x33, 0x1e, 0x8d, 0x38,
  0xc8, 0x6d, 0xce, 0x38, 0x59, 0x54, 0xc1, 0x38, 0x04, 0x5c, 0xb4, 0x38,
  0xf8, 0x1c, 0x9c, 0x38, 0x3d, 0xe6, 0xb1, 0x38, 0x22, 0x31, 0xb2, 0x38,
  0x70, 0x47, 0x9e, 0x38, 0x2e, 0x7d, 0xb0, 0x38, 0xa7, 0xe4, 0xa9, 0x38,
  0x98, 0xf2, 0x9e, 0x38, 0x44, 0x6e, 0x8a, 0x38, 0x57, 0x1a, 0xa4, 0x38,
  0xf2, 0xbe, 0x8c, 0x38, 0xe6, 0x7c, 0xa3, 0x38, 0x5c, 0x4f, 0xd9, 0x38,
  0xe7, 0x5b, 0xd0, 0x38, 0xf8, 0x23, 0xba, 0x38, 0x65, 0x3a, 0xaa, 0x38,
  0x18, 0x00, 0x00, 0x00, 0x73, 0x65, 0x71, 0x75, 0x65, 0x6e, 0x74, 0x69,
  0x61, 0x6c, 0x2f, 0x63, 0x6f, 0x6e, 0x76, 0x31, 0x64, 0x2f, 0x63, 0x6f,
  0x6e, 0x76, 0x31, 0x64, 0x00, 0x00, 0x00, 0x00, 0x01, 0x00, 0x00, 0x00,
  0x1e, 0x00, 0x00, 0x00, 0xaa, 0xfd, 0xff, 0xff, 0x00, 0x00, 0x00, 0x09,
  0x68, 0x00, 0x00, 0x00, 0x06, 0x00, 0x00, 0x00, 0x40, 0x00, 0x00, 0x00,
  0x04, 0x00, 0x00, 0x00, 0x9c, 0xfd, 0xff, 0xff, 0x2c, 0x00, 0x00, 0x00,
  0x20, 0x00, 0x00, 0x00, 0x14, 0x00, 0x00, 0x00, 0x04, 0x00, 0x00, 0x00,
  0x01, 0x00, 0x00, 0x00, 0x00, 0x00, 0x00, 0x00, 0x00, 0x00, 0x00, 0x00,
  0x01, 0x00, 0x00, 0x00, 0x52, 0x75, 0xb9, 0x3b, 0x01, 0x00, 0x00, 0x00,
  0x8f, 0x45, 0x23, 0x3f, 0x01, 0x00, 0x00, 0x00, 0x67, 0x02, 0x38, 0xbf,
  0x18, 0x00, 0x00, 0x00, 0x73, 0x65, 0x71, 0x75, 0x65, 0x6e, 0x74, 0x69,
  0x61, 0x6c, 0x2f, 0x79, 0x5f, 0x70, 0x72, 0x65, 0x64, 0x2f, 0x4d, 0x61,
  0x74, 0x4d, 0x75, 0x6c, 0x00, 0x00, 0x00, 0x00, 0x02, 0x00, 0x00, 0x00,
  0x03, 0x00, 0x00, 0x00, 0x0a, 0x00, 0x00, 0x00, 0x26, 0xfe, 0xff, 0xff,
  0x00, 0x00, 0x00, 0x02, 0x6c, 0x00, 0x00, 0x00, 0x05, 0x00, 0x00, 0x00,
  0x34, 0x00, 0x00, 0x00, 0x10, 0x00, 0x00, 0x00, 0x0c, 0x00, 0x0c, 0x00,
  0x00, 0x00, 0x00, 0x00, 0x04, 0x00, 0x08, 0x00, 0x0c, 0x00, 0x00, 0x00,
  0x14, 0x00, 0x00, 0x00, 0x04, 0x00, 0x00, 0x00, 0x01, 0x00, 0x00, 0x00,
  0x00, 0x00, 0x00, 0x00, 0x00, 0x00, 0x00, 0x00, 0x01, 0x00, 0x00, 0x00,
  0xbc, 0x15, 0xa9, 0x39, 0x28, 0x00, 0x00, 0x00, 0x73, 0x65, 0x71, 0x75,
  0x65, 0x6e, 0x74, 0x69, 0x61, 0x6c, 0x2f, 0x79, 0x5f, 0x70, 0x72, 0x65,
  0x64, 0x2f, 0x42, 0x69, 0x61, 0x73, 0x41, 0x64, 0x64, 0x2f, 0x52, 0x65,
  0x61, 0x64, 0x56, 0x61, 0x72, 0x69, 0x61, 0x62, 0x6c, 0x65, 0x4f, 0x70,
  0x00, 0x00, 0x00, 0x00, 0x01, 0x00, 0x00, 0x00, 0x03, 0x00, 0x00, 0x00,
  0xa2, 0xfe, 0xff, 0xff, 0x00, 0x00, 0x00, 0x02, 0x38, 0x00, 0x00, 0x00,
  0x04, 0x00, 0x00, 0x00, 0x10, 0x00, 0x00, 0x00, 0x08, 0x00, 0x00, 0x00,
  0x04, 0x00, 0x04, 0x00, 0x04, 0x00, 0x00, 0x00, 0x18, 0x00, 0x00, 0x00,
  0x73, 0x65, 0x71, 0x75, 0x65, 0x6e, 0x74, 0x69, 0x61, 0x6c, 0x2f, 0x66,
  0x6c, 0x61, 0x74, 0x74, 0x65, 0x6e, 0x2f, 0x43, 0x6f, 0x6e, 0x73, 0x74,
  0x00, 0x00, 0x00, 0x00, 0x01, 0x00, 0x00, 0x00, 0x02, 0x00, 0x00, 0x00,
  0xea, 0xfe, 0xff, 0xff, 0x00, 0x00, 0x00, 0x09, 0x78, 0x00, 0x00, 0x00,
  0x03, 0x00, 0x00, 0x00, 0x40, 0x00, 0x00, 0x00, 0x04, 0x00, 0x00, 0x00,
  0xdc, 0xfe, 0xff, 0xff, 0x2c, 0x00, 0x00, 0x00, 0x20, 0x00, 0x00, 0x00,
  0x14, 0x00, 0x00, 0x00, 0x04, 0x00, 0x00, 0x00, 0x01, 0x00, 0x00, 0x00,
  0x00, 0x00, 0x00, 0x00, 0x00, 0x00, 0x00, 0x00, 0x01, 0x00, 0x00, 0x00,
  0x66, 0xfc, 0xeb, 0x39, 0x01, 0x00, 0x00, 0x00, 0x6d, 0x24, 0x6a, 0x3d,
  0x01, 0x00, 0x00, 0x00, 0x4d, 0xb2, 0x66, 0xbd, 0x2a, 0x00, 0x00, 0x00,
  0x73, 0x65, 0x71, 0x75, 0x65, 0x6e, 0x74, 0x69, 0x61, 0x6c, 0x2f, 0x63,
  0x6f, 0x6e, 0x76, 0x31, 0x64, 0x5f, 0x31, 0x2f, 0x42, 0x69, 0x61, 0x73,
  0x41, 0x64, 0x64, 0x2f, 0x52, 0x65, 0x61, 0x64, 0x56, 0x61, 0x72, 0x69,
  0x61, 0x62, 0x6c, 0x65, 0x4f, 0x70, 0x00, 0x00, 0x01, 0x00, 0x00, 0x00,
  0x0a, 0x00, 0x00, 0x00, 0x72, 0xff, 0xff, 0xff, 0x00, 0x00, 0x00, 0x09,
  0x7c, 0x00, 0x00, 0x00, 0x02, 0x00, 0x00, 0x00, 0x44, 0x00, 0x00, 0x00,
  0x04, 0x00, 0x00, 0x00, 0x64, 0xff, 0xff, 0xff, 0x30, 0x00, 0x00, 0x00,
  0x24, 0x00, 0x00, 0x00, 0x18, 0x00, 0x00, 0x00, 0x04, 0x00, 0x00, 0x00,
  0x01, 0x00, 0x00, 0x00, 0x00, 0x00, 0x00, 0x00, 0x00, 0x00, 0x00, 0x00,
  0x00, 0x00, 0x00, 0x00, 0x01, 0x00, 0x00, 0x00, 0xc6, 0xa6, 0x48, 0x3a,
  0x01, 0x00, 0x00, 0x00, 0x78, 0x15, 0xc7, 0x3d, 0x01, 0x00, 0x00, 0x00,
  0x1b, 0x04, 0xe3, 0xbc, 0x28, 0x00, 0x00, 0x00, 0x73, 0x65, 0x71, 0x75,
  0x65, 0x6e, 0x74, 0x69, 0x61, 0x6c, 0x2f, 0x63, 0x6f, 0x6e, 0x76, 0x31,
  0x64, 0x2f, 0x42, 0x69, 0x61, 0x73, 0x41, 0x64, 0x64, 0x2f, 0x52, 0x65,
  0x61, 0x64, 0x56, 0x61, 0x72, 0x69, 0x61, 0x62, 0x6c, 0x65, 0x4f, 0x70,
  0x00, 0x00, 0x00, 0x00, 0x01, 0x00, 0x00, 0x00, 0x1e, 0x00, 0x00, 0x00,
  0x00, 0x00, 0x0e, 0x00, 0x18, 0x00, 0x08, 0x00, 0x07, 0x00, 0x0c, 0x00,
  0x10, 0x00, 0x14, 0x00, 0x0e, 0x00, 0x00, 0x00, 0x00, 0x00, 0x00, 0x09,
  0x6c, 0x00, 0x00, 0x00, 0x01, 0x00, 0x00, 0x00, 0x4c, 0x00, 0x00, 0x00,
  0x10, 0x00, 0x00, 0x00, 0x0c, 0x00, 0x14, 0x00, 0x04, 0x00, 0x08, 0x00,
  0x0c, 0x00, 0x10, 0x00, 0x0c, 0x00, 0x00, 0x00, 0x2c, 0x00, 0x00, 0x00,
  0x20, 0x00, 0x00, 0x00, 0x14, 0x00, 0x00, 0x00, 0x04, 0x00, 0x00, 0x00,
  0x01, 0x00, 0x00, 0x00, 0xe9, 0xff, 0xff, 0xff, 0xff, 0xff, 0xff, 0xff,
  0x01, 0x00, 0x00, 0x00, 0xbe, 0xe5, 0x33, 0x3d, 0x01, 0x00, 0x00, 0x00,
  0xd0, 0x24, 0xd2, 0x40, 0x01, 0x00, 0x00, 0x00, 0xdf, 0x3e, 0x94, 0xc0,
  0x12, 0x00, 0x00, 0x00, 0x72, 0x65, 0x73, 0x68, 0x61, 0x70, 0x65, 0x5f,
  0x69, 0x6e, 0x70, 0x75, 0x74, 0x5f, 0x69, 0x6e, 0x74, 0x38, 0x00, 0x00,
  0x02, 0x00, 0x00, 0x00, 0x01, 0x00, 0x00, 0x00, 0x7d, 0x02, 0x00, 0x00,
  0x08, 0x00, 0x00, 0x00, 0x98, 0x00, 0x00, 0x00, 0x80, 0x00, 0x00, 0x00,
  0x68, 0x00, 0x00, 0x00, 0x4c, 0x00, 0x00, 0x00, 0x3c, 0x00, 0x00, 0x00,
  0x20, 0x00, 0x00, 0x00, 0x14, 0x00, 0x00, 0x00, 0x04, 0x00, 0x00, 0x00,
  0xde, 0xff, 0xff, 0xff, 0x00, 0x00, 0x00, 0x06, 0x02, 0x00, 0x00, 0x00,
  0x9a, 0xff, 0xff, 0xff, 0x00, 0x00, 0x00, 0x72, 0xba, 0xff, 0xff, 0xff,
  0x00, 0x00, 0x00, 0x19, 0x02, 0x00, 0x00, 0x00, 0x00, 0x00, 0x0a, 0x00,
  0x0c, 0x00, 0x07, 0x00, 0x00, 0x00, 0x08, 0x00, 0x0a, 0x00, 0x00, 0x00,
  0x00, 0x00, 0x00, 0x09, 0x04, 0x00, 0x00, 0x00, 0xde, 0xff, 0xff, 0xff,
  0x00, 0x00, 0x00, 0x11, 0x02, 0x00, 0x00, 0x00, 0x00, 0x00, 0x0a, 0x00,
  0x0a, 0x00, 0x00, 0x00, 0x00, 0x00, 0x04, 0x00, 0x0a, 0x00, 0x00, 0x00,
  0x02, 0x00, 0x00, 0x00, 0x00, 0x00, 0x0a, 0x00, 0x0e, 0x00, 0x07, 0x00,
  0x00, 0x00, 0x08, 0x00, 0x0a, 0x00, 0x00, 0x00, 0x00, 0x00, 0x00, 0x03,
  0x03, 0x00, 0x00, 0x00, 0x00, 0x00, 0x06, 0x00, 0x08, 0x00, 0x07, 0x00,
  0x06, 0x00, 0x00, 0x00, 0x00, 0x00, 0x00, 0x16
};
unsigned int trained_tflite_len = 10976;
